/**
  ******************************************************************************
  * @file    mnist_data.c
  * @author  AST Embedded Analytics Research Platform
  * @date    Tue Dec 14 21:42:31 2021
  * @brief   AI Tool Automatic Code Generator for Embedded NN computing
  ******************************************************************************
  * @attention
  *
  * Copyright (c) 2021 STMicroelectronics.
  * All rights reserved.
  *
  * This software component is licensed by ST under Ultimate Liberty license
  * SLA0044, the "License"; You may not use this file except in compliance with
  * the License. You may obtain a copy of the License at:
  *                             www.st.com/SLA0044
  *
  ******************************************************************************
  */
#include "mnist_data.h"
#include "ai_platform_interface.h"


AI_ALIGNED(32)
const ai_u64 s_mnist_weights_array_u64[ 10205 ] = {
  0x3e8a96043ecb7dc0U, 0x3dde09423dce4022U, 0x3f1347d23f425675U, 0xbf42098dbf898577U,
  0x3e297cf23e512107U, 0xbea2adb43ddc507eU, 0x3e2f43a63e359f30U, 0xbdf82210bedee835U,
  0x3e7983f73ec42f43U, 0x3e17ac35be37f232U, 0x3dcf140ebd7ed020U, 0xbf0f207b3edb6a3fU,
  0x3ecf3cd13ec40c14U, 0xbe7c8265bf2fa634U, 0x3e0d3d7e3e3440b3U, 0x3efa558abf14fcc6U,
  0xbd243a433d36f470U, 0xbd7a7c123ed8ae12U, 0xbf46afd23da4ebceU, 0xbf130887bf16ea12U,
  0x3eabdd38bf3d2c6bU, 0x3eb893e1bf59ca7bU, 0xbf1710f23f78ade7U, 0x3d9ce602be32cbeaU,
  0x3efade563e86ea70U, 0x3e936e8d3ecfddefU, 0xbe9066b9bd85d41eU, 0x3eb19c4b3ed1d345U,
  0x3f1cb6d7bf09d378U, 0xbf550a3d3d8c2bcdU, 0x3d8132fc3f2a5665U, 0xbf275083bf39b2eaU,
  0xbdbb106cbe457960U, 0xbe90328bbed93c17U, 0xbdd77c7ebf18feb0U, 0xbf0c5533bdf8287cU,
  0xbdb403233f339a17U, 0xbea158babf173f58U, 0xbe95fb14bee24db9U, 0xbeeaa80bbf158259U,
  0xbf3ffd3cbdeb0481U, 0x3e7602043e5de297U, 0x3f1e11d93e16515cU, 0x3e8f3cca3e8ac8e5U,
  0xbeeaddb93e57b982U, 0xbf89e8b1bf3aabe1U, 0x3f1670f7bf6651caU, 0x3e1055f43efa23d0U,
  0x3f1413453f09c587U, 0xbe90263e3eb5390bU, 0x3e895099be959bdcU, 0x3eeb583a3e8b18a4U,
  0x3c3b14ff3eaa2d51U, 0xbea4c834be0589fbU, 0xbdcced5bbe135300U, 0xbded5575bdd94f7fU,
  0xbdf664933d90f908U, 0x3e17cb20be18a265U, 0xbe0a33593e0655deU, 0xbd942018bdb7f9a3U,
  0x3cde38ef3db48e42U, 0x3ca6aab33ca6aab3U, 0xbbde38ef3cde38efU, 0xbd0ae3953ca6aab3U,
  0x3d26aab33c5e38efU, 0x3d0ae39500000000U, 0x3d4271d13bde38efU, 0x3d26aab33ca6aab3U,
  0x3dc271d1bd8ae395U, 0xbd8ae39500000000U, 0xbd5e38efU, 0x3db48e423ca6aab3U,
  0xbc5e38ef3bde38efU, 0xbd0ae395bd0ae395U, 0xbcde38efbe11d55dU, 0xbd26aab33d7a000dU,
  0xbd4271d1bd98c724U, 0x3bde38efbd4271d1U, 0xbca6aab33d7a000dU, 0xbd26aab33c5e38efU,
  0xbca6aab3bdb48e42U, 0xbd0ae3953bde38efU, 0xbd26aab3bca6aab3U, 0xbc5e38efbd26aab3U,
  0x3c5e38efbd0ae395U, 0x3bde38efbe11d55dU, 0xbdb48e42be11d55dU, 0xbd26aab3bd0ae395U,
  0xbcde38efbd26aab3U, 0xbca6aab33d7a000dU, 0x3d26aab3bd26aab3U, 0xbd26aab3bd8ae395U,
  0xbd98c724be0ae395U, 0xbd98c724bda6aab3U, 0xbdec1c7e3d26aab3U, 0xbd5e38efbcde38efU,
  0x3bde38ef3d0ae395U, 0xbcde38ef3cde38efU, 0xbdd05560bc5e38efU, 0xbd26aab3bd0ae395U,
  0xbd26aab33d7a000dU, 0xbd8ae395bdd05560U, 0x3bde38ef3ca6aab3U, 0xbbde38efbd7a000dU,
  0xbd8ae395bd4271d1U, 0x3bde38efbdb48e42U, 0xbda6aab33d8ae395U, 0xbcde38efU,
  0xbc5e38efbbde38efU, 0xbdde38ef3c5e38efU, 0xbd4271d1bdb48e42U, 0xbd0ae3953d8ae395U,
  0xbd0ae3953e0ae395U, 0xbcde38efbd7a000dU, 0xbdb48e42bd5e38efU, 0xbe1fb8ecbe348e42U,
  0xbdb48e423bde38efU, 0xbd7a000dbdd05560U, 0xbe348e423d8ae395U, 0xbda6aab3be11d55dU,
  0xbd98c7243d98c724U, 0xbdb48e42bcde38efU, 0xbd0ae39500000000U, 0xbca6aab3bd0ae395U,
  0xbdc271d13d0ae395U, 0xbd4271d1bd0ae395U, 0xbd26aab33d98c724U, 0xbd4271d1bc5e38efU,
  0x3cde38efbc5e38efU, 0xbbde38ef3bde38efU, 0x3bde38ef3bde38efU, 0x3bde38ef3d26aab3U,
  0x3ca6aab33bde38efU, 0xbc5e38ef3cde38efU, 0x3c5e38efbc5e38efU, 0x3ca6aab33c5e38efU,
  0x3d5e38efbd26aab3U, 0x3ca6aab33dc271d1U, 0xbc5e38ef3c5e38efU, 0x0U,
  0x3bde38ef3c5e38efU, 0xbd8ae3953d7a000dU, 0x3d98c7243ca6aab3U, 0x3d98c7243da6aab3U,
  0xbcde38efbd4271d1U, 0xbbde38ef3d0ae395U, 0x3bde38efbe11d55dU, 0x3ca6aab3bbde38efU,
  0x3c5e38efbd5e38efU, 0xbd98c724bd7a000dU, 0xbd5e38efbd7a000dU, 0xbdc271d1be03f1ceU,
  0xbd5e38efbda6aab3U, 0x3dd05560bd5e38efU, 0xbe2d9c7b3db48e42U, 0xbe11d55dbe0ae395U,
  0xbbde38efbda6aab3U, 0xbd26aab3bc5e38efU, 0xbbde38ef3d5e38efU, 0x3dd05560bdde38efU,
  0xbd98c7243e11d55dU, 0x3c5e38efbd4271d1U, 0xbd98c724bd26aab3U, 0xbd26aab3bd4271d1U,
  0xbd4271d13d4271d1U, 0xbcde38efbe03f1ceU, 0xbd0ae395bca6aab3U, 0xbd26aab3bd26aab3U,
  0xbd7a000d3dde38efU, 0xbd4271d13c5e38efU, 0x3c5e38efbdd05560U, 0x3d4271d13ca6aab3U,
  0xbd26aab33dd05560U, 0xbc5e38efU, 0x3ca6aab33e03f1ceU, 0xbbde38ef3c5e38efU,
  0xbd8ae3953d7a000dU, 0x3e4963993dc271d1U, 0xbd0ae3953d8ae395U, 0xbd8ae3953d0ae395U,
  0x3c5e38ef3ca6aab3U, 0x3d4271d100000000U, 0x3c5e38ef3c5e38efU, 0x3db48e423cde38efU,
  0x3c5e38ef3dec1c7eU, 0xbcde38ef3dd05560U, 0xbc5e38ef3e2d9c7bU, 0xbca6aab3bd4271d1U,
  0xbd0ae3953d26aab3U, 0x3d26aab3bd5e38efU, 0xbca6aab3bca6aab3U, 0xbca6aab33d5e38efU,
  0xbd26aab3bd7a000dU, 0xbdb48e423d0ae395U, 0xbd5e38efbdc271d1U, 0x3e574728bcde38efU,
  0x3ca6aab33dd05560U, 0xbd8ae3953d4271d1U, 0xbd0ae395be26aab3U, 0xbc5e38efbd98c724U,
  0xbd5e38ef3e18c724U, 0x3d98c724bd7a000dU, 0xbd0ae3953dc271d1U, 0xbd26aab3bd5e38efU,
  0xbd8ae39500000000U, 0xbe03f1cebd98c724U, 0xbca6aab3bdd05560U, 0x3d26aab33ca6aab3U,
  0xbd0ae3953d7a000dU, 0xbdd05560bdb48e42U, 0xbdd055603db48e42U, 0xbd4271d1be18c724U,
  0xbe18c7243d0ae395U, 0xbd26aab3be18c724U, 0xbe26aab3bd4271d1U, 0xbd4271d1be11d55dU,
  0x3d98c7243d98c724U, 0xbbde38ef3ca6aab3U, 0x3d5e38efbdb48e42U, 0xbd4271d13d4271d1U,
  0x3d5e38efbda6aab3U, 0x3d98c7243ca6aab3U, 0xbd0ae395bdc271d1U, 0xbdde38efbd26aab3U,
  0xbca6aab3bda6aab3U, 0x3d4271d1U, 0xbd4271d1bcde38efU, 0xbdb48e423d26aab3U,
  0xbd7a000dbda6aab3U, 0xbbde38efbd26aab3U, 0x3c5e38efU, 0x3cde38efbe3b800aU,
  0x3cde38ef3dde38efU, 0xbd8ae395bcde38efU, 0xbcde38efbda6aab3U, 0xbe11d55dbd4271d1U,
  0xbd0ae395bdb48e42U, 0x3bde38efbd8ae395U, 0xbdc271d1bca6aab3U, 0xbd7a000dbe1fb8ecU,
  0x3d4271d13d4271d1U, 0x3d0ae395bd5e38efU, 0xbe26aab3bdec1c7eU, 0xbda6aab3bdc271d1U,
  0xbdc271d1bd4271d1U, 0xbdde38efbd7a000dU, 0xbda6aab3be1fb8ecU, 0xbd4271d1U,
  0xbd8ae395bd8ae395U, 0xbd5e38efbd26aab3U, 0xbd0ae395bd8ae395U, 0x3bde38efbdec1c7eU,
  0x3d5e38efbd26aab3U, 0x3cde38ef3d0ae395U, 0xbd7a000dbd26aab3U, 0x3bde38efbd4271d1U,
  0xbcde38efbd5e38efU, 0xbd7a000dbd26aab3U, 0xbca6aab33d98c724U, 0xbd0ae395bdc271d1U,
  0xbda6aab3U, 0x3dde38ef3cde38efU, 0xbd98c7243d0ae395U, 0xbd4271d1bcde38efU,
  0x3da6aab33c5e38efU, 0x3bde38ef3d4271d1U, 0xbdfa000dbdfa000dU, 0x3da6aab3bd4271d1U,
  0xbd26aab3bd26aab3U, 0xbdb48e423c5e38efU, 0x3c5e38ef3d0ae395U, 0xbd7a000dbd98c724U,
  0xbe0ae395be348e42U, 0x3d26aab3bbde38efU, 0xbe03f1cebbde38efU, 0xbd26aab3bcde38efU,
  0xbc5e38ef3dde38efU, 0xbd26aab3bd7a000dU, 0xbd26aab3be505560U, 0xbcde38efbdde38efU,
  0xbd4271d1be11d55dU, 0xbc5e38efbc5e38efU, 0x3db48e42bdfa000dU, 0xbd0ae3953bde38efU,
  0xbd5e38efbbde38efU, 0x3e26aab33dde38efU, 0xbd98c7243c5e38efU, 0xbe03f1ce3d5e38efU,
  0xbe5e38efbe11d55dU, 0xbdde38efbe2d9c7bU, 0xbe11d55d3da6aab3U, 0x3d0ae395be0ae395U,
  0xbe5055603d8ae395U, 0xbe5e38efbdd05560U, 0x3d26aab33d5e38efU, 0x3d98c7243dd05560U,
  0x3d98c7243ca6aab3U, 0x3c5e38ef3cde38efU, 0x3c5e38efbd5e38efU, 0x3cde38ef3d98c724U,
  0xbdd05560bdd05560U, 0xbda6aab3bd4271d1U, 0xbd5e38efbd4271d1U, 0x3dd0556000000000U,
  0xbd98c7243d0ae395U, 0xbd7a000d3da6aab3U, 0xbd26aab3bd7a000dU, 0xbbde38efbd5e38efU,
  0xbd4271d1bd7a000dU, 0xbcde38efbe1fb8ecU, 0x3d0ae395bd26aab3U, 0xbbde38efbe0ae395U,
  0xbd4271d1bda6aab3U, 0xbcde38efbd0ae395U, 0xbd26aab3bd8ae395U, 0x3c5e38efbe18c724U,
  0xbcde38efbd98c724U, 0x3d0ae395be1fb8ecU, 0xbd4271d1bda6aab3U, 0x3dc271d13d8ae395U,
  0xbda6aab3bcde38efU, 0xbd7a000d3e11d55dU, 0xbcde38efbe11d55dU, 0xbc5e38efbe0ae395U,
  0x3d26aab3bd8ae395U, 0xbda6aab3bca6aab3U, 0xbc5e38efbda6aab3U, 0xbda6aab3bca6aab3U,
  0xbd5e38efbc5e38efU, 0xbd8ae395be652ab6U, 0xbbde38ef3cde38efU, 0xbca6aab300000000U,
  0xbcde38efbdb48e42U, 0x3d7a000dbca6aab3U, 0xbcde38efbc5e38efU, 0xbc5e38efbe03f1ceU,
  0x3d7a000d3d5e38efU, 0xbcde38ef3dde38efU, 0xbd5e38efbcde38efU, 0x3d4271d13d98c724U,
  0xbd5e38efbdb48e42U, 0x3d5e38efbbde38efU, 0x3d98c7243e91d55dU, 0x3d5e38ef3e2d9c7bU,
  0x3bde38efbe18c724U, 0x3dd055603d5e38efU, 0x3d26aab33ca6aab3U, 0x3d7a000dbbde38efU,
  0x3d5e38ef3e3b800aU, 0x3d5e38ef3dd05560U, 0xbd5e38efbcde38efU, 0x3cde38ef3d8ae395U,
  0xbd5e38efbdc271d1U, 0x3c5e38ef3db48e42U, 0x3d4271d13dc271d1U, 0x3bde38ef3db48e42U,
  0xbca6aab3be26aab3U, 0xbcde38ef3d4271d1U, 0xbcde38efU, 0xbd0ae3953d26aab3U,
  0x3c5e38ef3e4271d1U, 0x3c5e38efbbde38efU, 0xbdfa000dbe18c724U, 0xbd0ae3953d98c724U,
  0xbe0ae395be18c724U, 0xbd7a000dbd4271d1U, 0xbda6aab3be954e41U, 0xbe652ab6bda6aab3U,
  0xbd7a000d3e505560U, 0x3d7a000dbd26aab3U, 0xbe11d55d3dde38efU, 0xbc5e38efbd26aab3U,
  0x3d8ae3953e11d55dU, 0x3dde38ef3d7a000dU, 0x3e03f1ce3cde38efU, 0xbd4271d1bca6aab3U,
  0x3d7a000dbd5e38efU, 0x3e11d55d3e18c724U, 0x3d7a000d3d26aab3U, 0xbdc271d13d5e38efU,
  0xbcde38efbd26aab3U, 0xbd5e38efbd26aab3U, 0xbc5e38efbd98c724U, 0xbd4271d13e18c724U,
  0x3d5e38efbcde38efU, 0x3db48e423d0ae395U, 0x3d0ae3953bde38efU, 0xbda6aab3bd7a000dU,
  0x3d98c724bd7a000dU, 0x3c5e38efbbde38efU, 0xbdc271d1be0ae395U, 0xbc5e38ef3ca6aab3U,
  0x3d4271d13d7a000dU, 0xbd98c724bbde38efU, 0xbd5e38efbcde38efU, 0x3d5e38efbe11d55dU,
  0xbbde38efU, 0xbbde38ef3dec1c7eU, 0xbd26aab3bd4271d1U, 0xbca6aab33da6aab3U,
  0xbcde38ef3d98c724U, 0x3d4271d1be98c724U, 0x3d8ae395bca6aab3U, 0xbbde38ef3d5e38efU,
  0xbd7a000dbc5e38efU, 0x3db48e423da6aab3U, 0xbd7a000d3cde38efU, 0x3c5e38efbe7a000dU,
  0xbca6aab3bbde38efU, 0x3c5e38ef3d0ae395U, 0xbe11d55dbd8ae395U, 0xbd4271d13dc271d1U,
  0xbcde38efbda6aab3U, 0xbdc271d1be496399U, 0xbbde38efbcde38efU, 0x3d4271d13d0ae395U,
  0xbe11d55dbdec1c7eU, 0xbdde38ef3e11d55dU, 0xbdfa000dbd26aab3U, 0xbe0ae395be91d55dU,
  0x3d8ae3953d0ae395U, 0x3c5e38ef3e0ae395U, 0xbe2d9c7bbe26aab3U, 0xbd98c7243e505560U,
  0xbe18c724bd8ae395U, 0xbdec1c7ebdb48e42U, 0x3e2d9c7b3cde38efU, 0x3e0ae3953da6aab3U,
  0xbe505560bcde38efU, 0xbd5e38ef3dd05560U, 0xbda6aab3be505560U, 0xbdb48e42be652ab6U,
  0x3e11d55d3d98c724U, 0x3d0ae3953d8ae395U, 0xbe57472800000000U, 0x3d7a000d3e1fb8ecU,
  0xbdb48e42bdc271d1U, 0xbdd05560bdde38efU, 0xbd4271d1U, 0x3d98c7243d7a000dU,
  0x3cde38efbd26aab3U, 0xbdec1c7e3dc271d1U, 0xbe8078eaU, 0xbd7a000dbc5e38efU,
  0xbdfa000dbe496399U, 0xbda6aab3bbde38efU, 0xbdfa000d3db48e42U, 0x3e11d55dbd0ae395U,
  0xbd98c7243d0ae395U, 0xbe11d55dbe11d55dU, 0x3cde38ef3d98c724U, 0x3cde38efU,
  0x3d4271d1bd7a000dU, 0x3ca6aab3bbde38efU, 0x3d0ae3953c5e38efU, 0x3bde38ef3d5e38efU,
  0x3ca6aab3bd26aab3U, 0x3d5e38efbd0ae395U, 0xbcde38efbd4271d1U, 0x3dfa000d3d4271d1U,
  0x3d26aab3U, 0xbd26aab33e03f1ceU, 0x3d5e38ef3d7a000dU, 0x3ca6aab33e0ae395U,
  0x3d26aab33e1fb8ecU, 0xbdde38efbbde38efU, 0x3d4271d1bd98c724U, 0x3cde38efbdc271d1U,
  0xbc5e38efbe26aab3U, 0x3da6aab3U, 0x3d8ae3953d26aab3U, 0x3d0ae3953e1fb8ecU,
  0x3e03f1ce3db48e42U, 0x3dde38efbe0ae395U, 0x3d4271d1bcde38efU, 0x3d0ae3953dfa000dU,
  0x3d7a000d3e496399U, 0x3d8ae3953db48e42U, 0x3d8ae3953e03f1ceU, 0x3d0ae395be83f1ceU,
  0xbca6aab3be0ae395U, 0xbbde38ef3dec1c7eU, 0xbcde38ef3d0ae395U, 0xbd7a000d3dde38efU,
  0xbd7a000dbd8ae395U, 0x3c5e38efbe98c724U, 0xbdde38efbda6aab3U, 0xbd7a000d3d7a000dU,
  0xbe4271d1bd8ae395U, 0x3db48e423e26aab3U, 0xbd0ae3953db48e42U, 0xbdd05560bea6aab3U,
  0xbd5e38efbdc271d1U, 0xbd5e38ef3cde38efU, 0xbdfa000d3e0ae395U, 0x3dec1c7e3d7a000dU,
  0xbdec1c7e3e348e42U, 0xbe18c724befa000dU, 0x3ca6aab3bca6aab3U, 0x3dc271d1bbde38efU,
  0xbe11d55dbd98c724U, 0xbe348e423dec1c7eU, 0xbda6aab3bdec1c7eU, 0xbe18c724bef30e45U,
  0x3cde38efbd8ae395U, 0x3e03f1cebbde38efU, 0xbdec1c7ebdd05560U, 0xbda6aab33da6aab3U,
  0xbc5e38efbe0ae395U, 0x3c5e38efbe652ab6U, 0x3dec1c7e3da6aab3U, 0x3c5e38ef3dc271d1U,
  0xbdd05560bd4271d1U, 0xbdd055603e4271d1U, 0xbdb48e42be1fb8ecU, 0xbd0ae395be8078eaU,
  0x3d98c724bbde38efU, 0x3dfa000d3d98c724U, 0x3da6aab3bd7a000dU, 0xbe18c7243e2d9c7bU,
  0x3d8ae395be3b800aU, 0x3d7a000dbcde38efU, 0x3c5e38efbe9fb8ecU, 0xbd26aab33bde38efU,
  0x3c5e38ef3c5e38efU, 0x3dfa000d3d5e38efU, 0xbd98c724bd7a000dU, 0xbd98c724bd7a000dU,
  0xbd26aab3bc5e38efU, 0x3cde38efbca6aab3U, 0xbd4271d1bdde38efU, 0xbd5e38ef3d26aab3U,
  0xbd26aab33ca6aab3U, 0xbdb48e4200000000U, 0xbd7a000d3c5e38efU, 0xbc5e38efbcde38efU,
  0xbd26aab33dc271d1U, 0x3d0ae395bc5e38efU, 0xbcde38efbd0ae395U, 0xbd8ae395bd8ae395U,
  0x3d26aab33bde38efU, 0x3bde38ef3e03f1ceU, 0x3db48e423e652ab6U, 0xbda6aab33db48e42U,
  0x3dd05560bdb48e42U, 0x3dec1c7ebe91d55dU, 0x3d26aab3bd5e38efU, 0x3dec1c7e3e3b800aU,
  0x3d0ae3953dec1c7eU, 0xbda6aab33e8078eaU, 0x3dc271d13ca6aab3U, 0x3d0ae395be03f1ceU,
  0x3d98c724bca6aab3U, 0x3dfa000d3e4271d1U, 0x3dd055603d5e38efU, 0xbd0ae3953e496399U,
  0x3dfa000dbca6aab3U, 0x3d26aab3be954e41U, 0xbdde38efU, 0x3d26aab33e505560U,
  0xbc5e38efbc5e38efU, 0xbe11d55d3e652ab6U, 0xbca6aab3bd26aab3U, 0xbd4271d1bed3ce44U,
  0xbd8ae395be954e41U, 0xbd26aab33dd05560U, 0xbe26aab33e652ab6U, 0x3dec1c7e3e8ae395U,
  0xbc5e38ef3dde38efU, 0xbe2d9c7bbe7a000dU, 0xbe2d9c7bbdec1c7eU, 0xbd98c7243bde38efU,
  0xbe91d55d3e505560U, 0x3dd055603e0ae395U, 0xbe3b800a3dfa000dU, 0xbe5e38efbe9fb8ecU,
  0xbd5e38efbdfa000dU, 0x3d7a000d3c5e38efU, 0xbdec1c7e3dd05560U, 0xbd26aab300000000U,
  0xbd98c724bd0ae395U, 0xbe348e42bf092724U, 0x3db48e42bda6aab3U, 0x3d8ae395bbde38efU,
  0xbd0ae3953d4271d1U, 0x3d5e38ef3d8ae395U, 0x3d98c7243d0ae395U, 0x3db48e42be505560U,
  0x3dde38efbcde38efU, 0x3d26aab33dfa000dU, 0x3d26aab33d26aab3U, 0xbd8ae3953e4271d1U,
  0x3d98c724bd26aab3U, 0x3d0ae395bea331d0U, 0x3e11d55d3d5e38efU, 0x3e3b800a3e03f1ceU,
  0x3ca6aab33d5e38efU, 0xbe652ab63e26aab3U, 0x3d4271d1be03f1ceU, 0x3dfa000dbe4271d1U,
  0x3d8ae395be348e42U, 0x3cde38ef3db48e42U, 0x3dc271d1bdde38efU, 0xbdb48e423d7a000dU,
  0x3d26aab3bdc271d1U, 0x3db48e423d26aab3U, 0x3ca6aab3bda6aab3U, 0xbca6aab33ca6aab3U,
  0xbd5e38efbe0ae395U, 0x3bde38ef3d5e38efU, 0xbd7a000d3c5e38efU, 0xbe1fb8ecbcde38efU,
  0xbd5e38efbbde38efU, 0x3c5e38ef3d8ae395U, 0x3ca6aab33d7a000dU, 0xbbde38ef3d26aab3U,
  0x3d26aab33cde38efU, 0x3dd05560bd0ae395U, 0x3d98c7243bde38efU, 0x3bde38ef3d8ae395U,
  0xbca6aab3U, 0xbbde38ef3e8ae395U, 0x3d26aab33ca6aab3U, 0x3db48e42be8078eaU,
  0x3db48e4200000000U, 0x3dec1c7e3e6c1c7eU, 0x3d8ae3953dc271d1U, 0xbe1fb8ec3e730e45U,
  0x3da6aab3bd5e38efU, 0x3ca6aab3bebb800aU, 0x3cde38efbe2d9c7bU, 0x3d98c7243dd05560U,
  0xbbde38ef3dd05560U, 0xbc5e38ef3e496399U, 0x3db48e42bdd05560U, 0xbc5e38efbef68729U,
  0x3d4271d1be348e42U, 0x3dd055603e2d9c7bU, 0x3cde38efbdb48e42U, 0xbda6aab33e2d9c7bU,
  0x3d0ae395bdd05560U, 0xbec96399U, 0xbd8ae395bead9c7bU, 0xbbde38ef3da6aab3U,
  0xbe0ae3953ea331d0U, 0xbdb48e423e26aab3U, 0xbd98c7243dc271d1U, 0xbe26aab3be496399U,
  0xbd26aab3be9fb8ecU, 0xbdde38efbcde38efU, 0xbdd055603e8ae395U, 0x3d8ae39500000000U,
  0xbd26aab33d5e38efU, 0xbdec1c7ebe1fb8ecU, 0xbdb48e42be26aab3U, 0xbca6aab33c5e38efU,
  0x3d0ae39500000000U, 0x3c5e38ef3d5e38efU, 0xbbde38efbd8ae395U, 0xbd26aab3beb80726U,
  0x3d98c7243c5e38efU, 0x3dd055603db48e42U, 0xbc5e38ef3d26aab3U, 0x3cde38ef3db48e42U,
  0x3d98c7243d8ae395U, 0xbbde38efbe574728U, 0x3dd05560bc5e38efU, 0x3dd055603cde38efU,
  0x3d5e38efbca6aab3U, 0xbca6aab33d8ae395U, 0x3d8ae3953cde38efU, 0x3cde38efbe730e45U,
  0x3ca6aab33c5e38efU, 0x3dd055603d26aab3U, 0x3dd05560be4271d1U, 0xbe4271d13e26aab3U,
  0x3e2d9c7bbda6aab3U, 0x3e348e42be8078eaU, 0x3dde38ef00000000U, 0xbca6aab33d26aab3U,
  0xbdec1c7e3d7a000dU, 0x3ca6aab33e26aab3U, 0xbe0ae3953d4271d1U, 0xbca6aab3be876ab2U,
  0xbd0ae395bdc271d1U, 0xbd0ae3953d26aab3U, 0xbbde38efbdfa000dU, 0x3bde38efbbde38efU,
  0xbd7a000dbd7a000dU, 0xbdfa000d3bde38efU, 0xbca6aab33cde38efU, 0x3c5e38efbd98c724U,
  0xbd7a000d3d26aab3U, 0xbc5e38efU, 0x3bde38ef3d0ae395U, 0xbbde38efbeb1155eU,
  0xbd5e38ef3d4271d1U, 0x3ca6aab33d8ae395U, 0x3cde38efU, 0xbd7a000d3dd05560U,
  0x3d4271d13ca6aab3U, 0xbe8078eaU, 0x3d98c7243e03f1ceU, 0x3dfa000d3d7a000dU,
  0x3cde38efbdb48e42U, 0xbdde38ef3d98c724U, 0x3d4271d1bc5e38efU, 0x3d0ae395bed05560U,
  0x3d8ae395bd7a000dU, 0x3d4271d13e1fb8ecU, 0x3dc271d1bd26aab3U, 0xbe11d55d3e4271d1U,
  0x3dd05560be11d55dU, 0xbead9c7bU, 0xbd26aab3bdde38efU, 0x3d8ae3953e03f1ceU,
  0xbbde38efU, 0xbe0ae3953e2d9c7bU, 0xbc5e38efU, 0xbd0ae395bdde38efU,
  0xbdc271d1be9fb8ecU, 0xbd7a000d3cde38efU, 0xbd4271d13e2d9c7bU, 0x3d5e38ef3db48e42U,
  0xbd0ae3953e18c724U, 0xbd4271d13d0ae395U, 0xbd0ae395be730e45U, 0x3ca6aab33ca6aab3U,
  0xbd26aab33d5e38efU, 0x3c5e38ef3ca6aab3U, 0xbd26aab33ca6aab3U, 0x3c5e38efbe505560U,
  0x3cde38efbda6aab3U, 0x3da6aab33dde38efU, 0x3dfa000d3dfa000dU, 0x3bde38ef3ca6aab3U,
  0x3e0ae3953db48e42U, 0x3d7a000dbe98c724U, 0x3d8ae3953d7a000dU, 0x3da6aab33d98c724U,
  0xbca6aab33e11d55dU, 0x3da6aab33dec1c7eU, 0x3d98c7243d0ae395U, 0x3d4271d1be5e38efU,
  0x3d5e38ef3d4271d1U, 0x3d7a000d3da6aab3U, 0x3d98c7243e1fb8ecU, 0x3d26aab33e03f1ceU,
  0x3d4271d13cde38efU, 0x3d8ae395be954e41U, 0x3d26aab33dd05560U, 0x3d7a000d3d98c724U,
  0x3d0ae395bdec1c7eU, 0xbdde38ef3dc271d1U, 0x3d4271d1bbde38efU, 0xbbde38efbe730e45U,
  0x3bde38efbca6aab3U, 0xbbde38efbda6aab3U, 0xbd0ae3953dec1c7eU, 0xbca6aab3bcde38efU,
  0xbc5e38ef3cde38efU, 0xbca6aab3bdde38efU, 0x3cde38efbd0ae395U, 0xbdb48e423db48e42U,
  0xbca6aab3bd98c724U, 0xbbde38ef3d0ae395U, 0xbca6aab3bd0ae395U, 0xbdd055603d7a000dU,
  0xbd7a000dbbde38efU, 0xbca6aab3bd7a000dU, 0xbd0ae395bcde38efU, 0x3d0ae395bdc271d1U,
  0xbd98c7243db48e42U, 0x3d0ae395bdfa000dU, 0x3c5e38efbcde38efU, 0xbd98c7243bde38efU,
  0xbd5e38efbe4271d1U, 0xbd4271d1bca6aab3U, 0xbdb48e42bd98c724U, 0xbda6aab3be1fb8ecU,
  0x3d0ae395U, 0x3da6aab33d8ae395U, 0x3d0ae395be2d9c7bU, 0xbdd055603e496399U,
  0x3d26aab3bca6aab3U, 0x3d26aab3be3b800aU, 0x3e18c7243d98c724U, 0x3e11d55d3d7a000dU,
  0x3d0ae39500000000U, 0x3c5e38ef3e11d55dU, 0x3dde38ef3dde38efU, 0x3dd05560be8ae395U,
  0x3d98c7243d0ae395U, 0x3dfa000d3e03f1ceU, 0x3dd05560bd7a000dU, 0xbdd055603e496399U,
  0x3dd05560bdec1c7eU, 0x3dd055603ca6aab3U, 0xbd8ae395bdd05560U, 0xbd98c7243ca6aab3U,
  0x3dec1c7e3d4271d1U, 0x3dde38efU, 0x3da6aab33bde38efU, 0x3cde38ef3e0ae395U,
  0xbcde38efbdd05560U, 0x3bde38ef3cde38efU, 0x3d8ae3953e18c724U, 0x3ca6aab33c5e38efU,
  0x3db48e423e1fb8ecU, 0x3dc271d1be03f1ceU, 0xbd7a000d3d0ae395U, 0xbd26aab3bd98c724U,
  0x3d26aab33db48e42U, 0x3bde38efbd26aab3U, 0x3d7a000dbc5e38efU, 0x3bde38efbd98c724U,
  0x3bde38efbca6aab3U, 0x3d8ae3953ca6aab3U, 0x3d5e38efU, 0x3db48e42bcde38efU,
  0x3e3b800aU, 0x3d98c724be505560U, 0x3d7a000dU, 0x3d7a000d3d5e38efU,
  0x3d5e38efbca6aab3U, 0x3cde38efU, 0x3c5e38efbca6aab3U, 0xbdde38efU,
  0x3d5e38efbdc271d1U, 0xbcde38efbd0ae395U, 0xbd7a000dbd5e38efU, 0x3d4271d13d4271d1U,
  0xbd4271d13e2d9c7bU, 0xbca6aab3be9fb8ecU, 0xbcde38ef3d26aab3U, 0xbd98c724bdb48e42U,
  0xbd7a000d3da6aab3U, 0x3db48e42bdb48e42U, 0xbe18c7243d26aab3U, 0xbca6aab3be26aab3U,
  0xbd5e38efbda6aab3U, 0x3cde38ef3d8ae395U, 0xbd7a000dU, 0xbca6aab33d0ae395U,
  0xbbde38efU, 0xbdb48e423d7a000dU, 0xbdec1c7ebd98c724U, 0xbdc271d1bdec1c7eU,
  0xbdb48e42be6c1c7eU, 0x3e0ae395bc5e38efU, 0xbe5e38ef3dd05560U, 0xbdec1c7ebe91d55dU,
  0x3d4271d13d0ae395U, 0xbd0ae395bd0ae395U, 0xbd7a000dbdde38efU, 0xbdec1c7ebca6aab3U,
  0xbdb48e42bda6aab3U, 0xbd5e38ef3bde38efU, 0x3dde38efbd98c724U, 0xbcde38efbcde38efU,
  0xbe03f1cebe18c724U, 0xbc5e38ef3c5e38efU, 0xbcde38efbe11d55dU, 0xbdec1c7ebca6aab3U,
  0x3cde38ef3da6aab3U, 0x3db48e423cde38efU, 0xbbde38efbdb48e42U, 0x3da6aab33e348e42U,
  0xbd7a000d3bde38efU, 0x3bde38ef3d5e38efU, 0x3e5055603dc271d1U, 0x3dc271d13d4271d1U,
  0xbd26aab3bd98c724U, 0x3d26aab33c5e38efU, 0x3c5e38efbd26aab3U, 0x3d26aab3bd0ae395U,
  0x3ca6aab33d4271d1U, 0xbcde38ef3bde38efU, 0xbd4271d1bcde38efU, 0xbd26aab3be11d55dU,
  0xbc5e38ef00000000U, 0xbd0ae3953e4271d1U, 0xbd0ae395bdc271d1U, 0x3cde38efbdec1c7eU,
  0xbbde38efbca6aab3U, 0xbc5e38efbdfa000dU, 0x3c5e38ef3ca6aab3U, 0x3bde38ef3d0ae395U,
  0xbd26aab3be1fb8ecU, 0xbe03f1cebd0ae395U, 0xbdde38efbd26aab3U, 0x3d98c724bdb48e42U,
  0xbd98c7243dc271d1U, 0xbe03f1ce3cde38efU, 0xbd98c724bd7a000dU, 0xbd0ae395bd26aab3U,
  0xbdd055603dde38efU, 0x3d8ae395bdfa000dU, 0xbdde38ef3e2d9c7bU, 0xbdb48e42bd0ae395U,
  0xbd5e38efbd5e38efU, 0xbd5e38efbda6aab3U, 0xbda6aab3bcde38efU, 0xbdb48e42bd7a000dU,
  0xbca6aab3bd0ae395U, 0xbd98c724be4271d1U, 0xbdb48e42be4271d1U, 0xbe1fb8ecbdde38efU,
  0xbdd055603dec1c7eU, 0x3d5e38efbe2d9c7bU, 0xbdb48e423e11d55dU, 0xbd26aab3be574728U,
  0xbe1fb8ecbbde38efU, 0x3d26aab3bdc271d1U, 0x3ca6aab33d5e38efU, 0x3cde38efbe2d9c7bU,
  0x3d4271d13d0ae395U, 0x3c5e38ef3bde38efU, 0x3c5e38efbbde38efU, 0xbc5e38ef00000000U,
  0x3d5e38efbd0ae395U, 0xbbde38ef3d0ae395U, 0x3d98c724bda6aab3U, 0x3c5e38ef3d5e38efU,
  0xbca6aab3bdfa000dU, 0xbd98c724bd5e38efU, 0xbd7a000d3dde38efU, 0x3dec1c7ebd7a000dU,
  0xbdd055603c5e38efU, 0x3e6c1c7eU, 0xbda6aab33bde38efU, 0x3c5e38ef3c5e38efU,
  0xbd7a000dbd5e38efU, 0x3e1fb8ecbcde38efU, 0xbd8ae395bd26aab3U, 0xbd26aab3bd8ae395U,
  0x3d5e38ef3db48e42U, 0x3ca6aab3be4271d1U, 0xbd7a000dbe496399U, 0xbd0ae395bc5e38efU,
  0xbd8ae39500000000U, 0xbd0ae395bc5e38efU, 0x3d0ae3953e0ae395U, 0x3d8ae395bd0ae395U,
  0xbd4271d1be26aab3U, 0x3ca6aab3bdc271d1U, 0xbbde38efbdde38efU, 0x3d26aab33d98c724U,
  0x3d0ae3953dd05560U, 0x3d5e38efbdd05560U, 0xbcde38efbe03f1ceU, 0x3ca6aab3bd5e38efU,
  0xbd7a000d3ca6aab3U, 0x3d7a000d3e2d9c7bU, 0xbca6aab33e0ae395U, 0xbd5e38efbdfa000dU,
  0xbca6aab3be1fb8ecU, 0xbdc271d1be4271d1U, 0xbca6aab3be18c724U, 0xbbde38ef3e11d55dU,
  0xbd5e38ef3d5e38efU, 0xbe1fb8ecbe6c1c7eU, 0xbcde38efbe0ae395U, 0xbe11d55dbe03f1ceU,
  0xbd4271d1be0ae395U, 0xbbde38ef3dec1c7eU, 0xbd98c724bd7a000dU, 0xbe18c724be4271d1U,
  0xbd8ae395bdd05560U, 0xbbde38efbda6aab3U, 0xbda6aab33dd05560U, 0xbda6aab33da6aab3U,
  0xbe3b800abe652ab6U, 0xbe505560be8e5c79U, 0xbd4271d13e574728U, 0x3e83f1cebe18c724U,
  0xbe26aab33e3b800aU, 0xbe4963993c5e38efU, 0xbe1fb8ecbd4271d1U, 0xbd98c724be876ab2U,
  0xbe18c7243d5e38efU, 0x3e18c724be505560U, 0xbdc271d13dd05560U, 0xbe2d9c7bbead9c7bU,
  0xbd4271d1bd8ae395U, 0xbdde38efbe0ae395U, 0xbd98c7243e496399U, 0x3d26aab3bdec1c7eU,
  0xbe18c72400000000U, 0xbdfa000d3dc271d1U, 0xbca6aab3bd8ae395U, 0x3cde38ef3cde38efU,
  0xbca6aab3U, 0x3bde38efbd98c724U, 0xbcde38efbdec1c7eU, 0xbc5e38ef3d4271d1U,
  0xbbde38ef00000000U, 0x3c5e38ef3d26aab3U, 0x3cde38ef3bde38efU, 0x3ca6aab33d0ae395U,
  0x3db48e42bdb48e42U, 0xbbde38ef3d26aab3U, 0xbca6aab3bcde38efU, 0xbcde38efbc5e38efU,
  0x3d5e38efbd5e38efU, 0x3cde38ef3cde38efU, 0x3d26aab3bd7a000dU, 0xbd26aab33d98c724U,
  0xbd0ae395bdde38efU, 0xbdb48e42bca6aab3U, 0xbd26aab33bde38efU, 0x3cde38efbd4271d1U,
  0xbe2d9c7bbd0ae395U, 0xbe0ae3953d7a000dU, 0xbdec1c7ebe652ab6U, 0xbdfa000dbe8078eaU,
  0xbe5e38efbc5e38efU, 0x3e3b800abe03f1ceU, 0xbe5055603d26aab3U, 0xbe5747283e505560U,
  0xbe2d9c7bbe574728U, 0xbe348e42be8ae395U, 0xbe9fb8ec3d98c724U, 0x3e83f1cebe2d9c7bU,
  0xbeb807263e03f1ceU, 0xbe954e413e6c1c7eU, 0xbe496399be730e45U, 0xbda6aab3be6c1c7eU,
  0xbebb800a3e1fb8ecU, 0x3e6c1c7ebe652ab6U, 0xbead9c7b3dd05560U, 0xbe0ae3953e652ab6U,
  0xbe0ae395be505560U, 0xbdde38efbe730e45U, 0xbebb800a3e348e42U, 0x3e98c724bdec1c7eU,
  0xbee1b1d33dec1c7eU, 0xbe9c40083e5e38efU, 0xbe7a000dbe83f1ceU, 0xbe574728be9c4008U,
  0xbeb48e423e6c1c7eU, 0x3e9c4008be954e41U, 0xbee1b1d300000000U, 0xbee8a39a3e8e5c79U,
  0xbe8078eabe496399U, 0xbe496399be7a000dU, 0xbe348e423e876ab2U, 0x3e18c724be3b800aU,
  0xbead9c7bbd26aab3U, 0xbeb48e423e574728U, 0xbe4271d1be9c4008U, 0xbe18c724be4271d1U,
  0xbe1fb8ec3dde38efU, 0x3db48e42be876ab2U, 0xbe6c1c7e3bde38efU, 0xbe730e453e505560U,
  0xbe652ab6be2d9c7bU, 0xbdb48e42be2d9c7bU, 0x3d4271d1U, 0x3d8ae395be876ab2U,
  0xbdc271d1bdc271d1U, 0xbd98c7243d98c724U, 0x3c5e38ef3d0ae395U, 0x3cde38efbd5e38efU,
  0xbbde38efbc5e38efU, 0xbc5e38efU, 0xbdc271d1U, 0xbc5e38ef3d7a000dU,
  0x3da6aab33d0ae395U, 0x3da6aab33d4271d1U, 0x3d4271d1bd8ae395U, 0xbca6aab3bc5e38efU,
  0x3d8ae395bd0ae395U, 0x3ca6aab33d4271d1U, 0xbe11d55dbdc271d1U, 0xbe0ae395bdec1c7eU,
  0xbd7a000d3dfa000dU, 0x3d26aab3bdb48e42U, 0xbe03f1ce3d98c724U, 0xbe11d55dbe18c724U,
  0xbe1fb8ecbe0ae395U, 0xbd7a000dbe03f1ceU, 0xbe1fb8ec3dd05560U, 0x3d7a000dbe18c724U,
  0xbe11d55d3e348e42U, 0xbdde38efbdec1c7eU, 0xbdb48e42be0ae395U, 0xbdfa000dbdd05560U,
  0xbe2d9c7b3da6aab3U, 0x3dde38efbe18c724U, 0xbe03f1ce3e2d9c7bU, 0xbe11d55dbdfa000dU,
  0xbdfa000dbdde38efU, 0xbe3b800abe1fb8ecU, 0xbe2d9c7bbbde38efU, 0x3dde38efbdb48e42U,
  0xbe348e423e11d55dU, 0xbe4271d1bdde38efU, 0xbe26aab3be11d55dU, 0xbe5e38efbdde38efU,
  0xbe5055603ca6aab3U, 0x3dde38efbe3b800aU, 0xbe26aab33e11d55dU, 0xbe574728be348e42U,
  0xbe11d55d3bde38efU, 0xbe11d55dbe11d55dU, 0xbd7a000d3d5e38efU, 0x3dc271d1be4271d1U,
  0xbdfa000d3e2d9c7bU, 0xbe03f1cebd5e38efU, 0xbe0ae395bd8ae395U, 0x3d98c724bd5e38efU,
  0x3ca6aab300000000U, 0xbd0ae395U, 0x3bde38efbd0ae395U, 0x3d98c72400000000U,
  0xbdec1c7ebe876ab2U, 0xbc5e38efbd8ae395U, 0x3dde38ef3e348e42U, 0xbd0ae3953bde38efU,
  0x3dc271d1bd4271d1U, 0x3e2d9c7b00000000U, 0xbd98c724be91d55dU, 0xbd5e38ef3ca6aab3U,
  0x3dd055603ca6aab3U, 0x3ca6aab33ca6aab3U, 0x3d0ae3953dc271d1U, 0x3d98c7243dde38efU,
  0xbdd05560be7a000dU, 0xbdb48e42bdb48e42U, 0xbdde38ef3e0ae395U, 0xbbde38efbdfa000dU,
  0xbd5e38ef3bde38efU, 0xbd7a000d00000000U, 0xbdde38efbdc271d1U, 0xbe348e42bdc271d1U,
  0xbe0ae3953d5e38efU, 0x3d98c724bdec1c7eU, 0xbe348e423e26aab3U, 0xbe26aab3bd5e38efU,
  0xbdfa000dbdec1c7eU, 0xbe18c724be18c724U, 0xbdc271d13dd05560U, 0x3e11d55dbdec1c7eU,
  0xbdd055603dfa000dU, 0xbe11d55dbdc271d1U, 0xbd7a000dbe11d55dU, 0xbe0ae395bda6aab3U,
  0xbda6aab33d5e38efU, 0x3d8ae395bd98c724U, 0xbe348e423dfa000dU, 0xbdfa000dbe18c724U,
  0xbdfa000dbdec1c7eU, 0xbdc271d1be18c724U, 0xbd5e38ef3da6aab3U, 0x3d4271d1bd8ae395U,
  0xbe18c7243dfa000dU, 0xbdb48e42bd7a000dU, 0x3c5e38efbd4271d1U, 0xbe03f1cebdfa000dU,
  0xbda6aab33e4271d1U, 0x3d4271d1bdb48e42U, 0xbda6aab33db48e42U, 0xbd5e38ef3c5e38efU,
  0xbc5e38efbe03f1ceU, 0xbd26aab33d4271d1U, 0x3ca6aab33dfa000dU, 0x3d4271d1bd4271d1U,
  0xbc5e38ef3dd05560U, 0xbca6aab33dd05560U, 0xbdd05560bcde38efU, 0xbdc271d1bd5e38efU,
  0xbdde38efbd4271d1U, 0x3e0ae3953ca6aab3U, 0xbd26aab33dde38efU, 0xbbde38ef00000000U,
  0xbdc271d13d8ae395U, 0xbdb48e423e03f1ceU, 0xbdd055603cde38efU, 0x3e8e5c793d98c724U,
  0xbca6aab33d98c724U, 0xbd7a000dbda6aab3U, 0xbe26aab3bd0ae395U, 0xbdc271d13d8ae395U,
  0xbd5e38ef3e0ae395U, 0x3e5e38ef3e2d9c7bU, 0xbd98c7243e91d55dU, 0xbd4271d1be4271d1U,
  0x3c5e38efbdc271d1U, 0x3d0ae3953d98c724U, 0xbda6aab33e505560U, 0x3db48e423e496399U,
  0xbd5e38ef3c5e38efU, 0xbdd05560be496399U, 0xbc5e38efbe03f1ceU, 0x3d0ae3953dc271d1U,
  0x3ca6aab33e6c1c7eU, 0x3cde38ef3e496399U, 0x3d26aab33dec1c7eU, 0x3bde38efbd8ae395U,
  0x3c5e38efbdd05560U, 0x3e0ae3953cde38efU, 0x3d4271d13e4271d1U, 0x3e0ae3953d7a000dU,
  0x3da6aab33e2d9c7bU, 0x3c5e38efbcde38efU, 0xbd5e38efbe03f1ceU, 0x3da6aab33d26aab3U,
  0x3cde38ef3ed74728U, 0x3c5e38ef3dc271d1U, 0x3dec1c7ebd5e38efU, 0x3c5e38efbd8ae395U,
  0x3d98c724bdb48e42U, 0xbca6aab33dec1c7eU, 0xbca6aab33e5e38efU, 0x3e4271d13dd05560U,
  0xbbde38ef3e11d55dU, 0xbd4271d13dd05560U, 0xbc5e38efbe5e38efU, 0xbdd055603ca6aab3U,
  0xbe0ae3953d8ae395U, 0x3e2d9c7b3c5e38efU, 0xbdd055603e4271d1U, 0xbdc271d1bda6aab3U,
  0xbe18c724be1fb8ecU, 0xbdfa000dbe0ae395U, 0xbe3b800a3e1fb8ecU, 0x3e0ae395be18c724U,
  0xbe03f1ce3e1fb8ecU, 0xbe2d9c7bbe11d55dU, 0xbe18c724bdec1c7eU, 0xbdfa000dbe26aab3U,
  0xbdec1c7e3d4271d1U, 0x3dec1c7ebd7a000dU, 0xbd8ae3953db48e42U, 0xbdde38efbe03f1ceU,
  0x0U, 0xbd7a000dbd4271d1U, 0xbda6aab33dd05560U, 0x3d5e38efbda6aab3U,
  0xbd7a000d3db48e42U, 0x3da6aab3bc5e38efU, 0xbbde38ef3d7a000dU, 0xbd98c7243d8ae395U,
  0xbd98c724bd26aab3U, 0xbdfa000d00000000U, 0x3c5e38efbcde38efU, 0xbd26aab33c5e38efU,
  0xbdb48e42bd26aab3U, 0xbe0ae395bc5e38efU, 0xbe18c724be1fb8ecU, 0x3e7a000dbca6aab3U,
  0xbdec1c7e3d26aab3U, 0xbdec1c7ebd8ae395U, 0xbbde38efbd4271d1U, 0xbd98c724bdb48e42U,
  0xbe26aab3be3b800aU, 0x3d5e38efbe11d55dU, 0xbe1fb8ec3e03f1ceU, 0xbe03f1cebd98c724U,
  0xbd26aab3be26aab3U, 0xbdb48e423c5e38efU, 0xbe4271d13d26aab3U, 0x3c5e38ef3e2d9c7bU,
  0xbe2d9c7b3c5e38efU, 0xbdc271d1be5e38efU, 0xbd26aab3be505560U, 0x3d98c724bdc271d1U,
  0xbe3b800a00000000U, 0xbbde38ef3d0ae395U, 0xbd7a000d3c5e38efU, 0xbdec1c7ebed74728U,
  0xbcde38efbe83f1ceU, 0x3bde38efbdb48e42U, 0xbe3b800a3d98c724U, 0x3d98c7243dc271d1U,
  0xbdec1c7e3d7a000dU, 0xbe26aab3bec5eab5U, 0xbd8ae395bea331d0U, 0x3d8ae395bbde38efU,
  0xbd4271d13e6c1c7eU, 0x3d98c7243c5e38efU, 0xbd5e38ef3dec1c7eU, 0xbda6aab3be91d55dU,
  0x3d26aab3be8078eaU, 0x3dde38ef3d4271d1U, 0xbcde38ef3e6c1c7eU, 0x3d4271d13e0ae395U,
  0x3cde38ef3e348e42U, 0x3d98c724be0ae395U, 0x3d8ae395be652ab6U, 0xbbde38ef3d7a000dU,
  0x3ca6aab33dec1c7eU, 0xbc5e38ef3db48e42U, 0x3db48e423da6aab3U, 0x3cde38efbc5e38efU,
  0xbdc271d1be18c724U, 0xbdb48e42bd8ae395U, 0xbe03f1cebc5e38efU, 0x3d4271d1bcde38efU,
  0xbcde38ef3dc271d1U, 0xbe03f1cebbde38efU, 0xbe3b800abe03f1ceU, 0xbe8078eabe4271d1U,
  0xbe348e423e26aab3U, 0x3d8ae395be83f1ceU, 0xbdfa000d3e11d55dU, 0xbe03f1cebe505560U,
  0xbdb48e42bdb48e42U, 0xbe0ae395be18c724U, 0xbe18c7243d7a000dU, 0x3dd05560be2d9c7bU,
  0xbdfa000d3e18c724U, 0xbdc271d1bdec1c7eU, 0xbdc271d1be26aab3U, 0xbca6aab3be11d55dU,
  0xbe18c7243c5e38efU, 0x3db48e42be0ae395U, 0xbd7a000d3dd05560U, 0xbe18c724bdb48e42U,
  0x3bde38efbd5e38efU, 0xbd0ae395bd98c724U, 0xbe5747283c5e38efU, 0x3e348e42be18c724U,
  0xbdfa000d3dc271d1U, 0xbd4271d1bdfa000dU, 0x3bde38efbe26aab3U, 0xbd0ae395bdc271d1U,
  0xbd7a000dbcde38efU, 0x3dde38efbd7a000dU, 0xbdec1c7e3d26aab3U, 0xbd8ae3953e496399U,
  0xbdde38efbda6aab3U, 0xbbde38efbe0ae395U, 0xbd4271d1be0ae395U, 0xbc5e38efbe574728U,
  0xbca6aab300000000U, 0xbcde38efbdec1c7eU, 0xbe03f1cebdc271d1U, 0xbdd05560bd5e38efU,
  0xbdec1c7ebe18c724U, 0xbd8ae395bd8ae395U, 0xbe26aab3bc5e38efU, 0xbdfa000dbeaa2397U,
  0xbd5e38efbe4271d1U, 0xbd8ae395be1fb8ecU, 0xbd7a000dbdc271d1U, 0xbd26aab3be03f1ceU,
  0xbdd05560bdec1c7eU, 0xbdd05560bef68729U, 0xbd7a000dbea331d0U, 0xbdd05560be18c724U,
  0xbd8ae395bcde38efU, 0x3dc271d1bd98c724U, 0xbd8ae3953d98c724U, 0xbda6aab3bf11d55dU,
  0xbd8ae395be9fb8ecU, 0x3bde38efbdc271d1U, 0xbd5e38efbda6aab3U, 0x3ca6aab3bd4271d1U,
  0xbd26aab3bd7a000dU, 0xbd4271d1bf0e5c79U, 0xbd98c724be876ab2U, 0xbd5e38efbc5e38efU,
  0xbd8ae3953d8ae395U, 0xbdc271d13c5e38efU, 0xbd4271d13d7a000dU, 0xbebef8edU,
  0x3cde38efbd0ae395U, 0x3bde38ef3ca6aab3U, 0x3cde38efbca6aab3U, 0xbe11d55d3d98c724U,
  0x3d0ae3953d26aab3U, 0xbd4271d1be83f1ceU, 0xbdb48e42be8e5c79U, 0xbdfa000dbd98c724U,
  0xbe348e423ca6aab3U, 0x3dc271d1bd4271d1U, 0xbe1fb8ec3e26aab3U, 0xbe505560be8078eaU,
  0xbe4271d1be6c1c7eU, 0xbe730e45be91d55dU, 0xbe8ae3953e348e42U, 0x3e26aab3be730e45U,
  0xbe9c40083db48e42U, 0xbe91d55dbea6aab3U, 0xbe348e42be1fb8ecU, 0xbe0ae395bdde38efU,
  0xbe348e423db48e42U, 0x3e11d55dbd98c724U, 0xbe11d55d3db48e42U, 0xbdde38efbe0ae395U,
  0xbe348e42be3b800aU, 0xbd98c724bd7a000dU, 0xbe4271d13d5e38efU, 0x3d5e38efbe03f1ceU,
  0xbda6aab33d5e38efU, 0xbe03f1cebe03f1ceU, 0xbe11d55dbca6aab3U, 0xbd7a000dbdd05560U,
  0xbd4271d13dd05560U, 0x3e3b800abdc271d1U, 0xbd5e38ef3e730e45U, 0xbd26aab3bda6aab3U,
  0xbc5e38ef3d26aab3U, 0xbd98c724bd8ae395U, 0x3d5e38efbe5e38efU, 0x3d0ae395be03f1ceU,
  0xbd8ae395bca6aab3U, 0x3d0ae3953db48e42U, 0xbd4271d1bd98c724U, 0xbdde38efbe03f1ceU,
  0x3d4271d1bdd05560U, 0xbc5e38efbe348e42U, 0x3dde38efU, 0xbd5e38efbbde38efU,
  0xbdb48e42bdec1c7eU, 0xbdfa000dbe1fb8ecU, 0xbd4271d1bdd05560U, 0xbdde38efbe4271d1U,
  0xbdc271d1bca6aab3U, 0xbd26aab3be18c724U, 0xbd5e38efbd26aab3U, 0xbd26aab3bdd05560U,
  0x3cde38efbe876ab2U, 0x3cde38efbd8ae395U, 0xbd8ae395U, 0x3d5e38efbefd78f1U,
  0xbe1fb8ecU, 0x3d7a000dbd7a000dU, 0xbe26aab3U, 0x3d0ae3953c5e38efU,
  0xbdb48e42bd4271d1U, 0x3ca6aab3beaa2397U, 0xbd7a000dbe8e5c79U, 0xbd98c724bd5e38efU,
  0xbdb48e42be1fb8ecU, 0xbdb48e42bd5e38efU, 0xbda6aab3bda6aab3U, 0xbd98c724bf0e5c79U,
  0xbcde38efbe5e38efU, 0x3d4271d1bda6aab3U, 0xbd4271d1bdde38efU, 0x3bde38efbc5e38efU,
  0xbd7a000dbc5e38efU, 0xbd26aab3bea6aab3U, 0x3cde38efbe0ae395U, 0x3d26aab33ca6aab3U,
  0x3d26aab33d5e38efU, 0x3d26aab33d26aab3U, 0x3d7a000d3d4271d1U, 0xbbde38efbdec1c7eU,
  0xbca6aab3be1fb8ecU, 0xbe496399bd26aab3U, 0xbdd055603dc271d1U, 0x3dfa000dbd0ae395U,
  0xbdec1c7e3e8078eaU, 0xbe18c724bd98c724U, 0xbe83f1cebe652ab6U, 0xbe730e45be6c1c7eU,
  0xbe2d9c7b3e574728U, 0x3e11d55dbe83f1ceU, 0xbe730e453dec1c7eU, 0xbe730e45be574728U,
  0xbe0ae395be1fb8ecU, 0xbd7a000dbe2d9c7bU, 0xbe2d9c7b3e18c724U, 0x3e0ae395bda6aab3U,
  0xbdd055603e348e42U, 0xbd98c724bdec1c7eU, 0xbd98c724bdec1c7eU, 0xbdde38ef3bde38efU,
  0xbe0ae3953e0ae395U, 0x3d5e38efbca6aab3U, 0xbd26aab33cde38efU, 0xbe03f1cebdec1c7eU,
  0xbd5e38efbe730e45U, 0xbe18c724bdde38efU, 0xbe4963993e1fb8ecU, 0x3e1fb8ecbd8ae395U,
  0xbe0ae3953e7a000dU, 0xbcde38ef3e730e45U, 0x3ca6aab3bd8ae395U, 0xbe0ae395be1fb8ecU,
  0xbdec1c7e3e7a000dU, 0x3e8078ea3bde38efU, 0xbdfa000d3d98c724U, 0xbdde38ef3e652ab6U,
  0xbe2d9c7bbdde38efU, 0xbd26aab3bdfa000dU, 0x3e11d55dU, 0x3e0ae395be3b800aU,
  0xbd5e38ef3e2d9c7bU, 0xbdb48e423d0ae395U, 0xbe26aab3bdfa000dU, 0xbe348e42be348e42U,
  0xbd5e38ef00000000U, 0xbdb48e42be0ae395U, 0xbe26aab33e11d55dU, 0xbd0ae395be876ab2U,
  0x3d8ae395bdd05560U, 0xbbde38ef3d5e38efU, 0x3bde38ef3bde38efU, 0xbd4271d1bd8ae395U,
  0x3c5e38ef3d5e38efU, 0x3ca6aab3bf170ab2U, 0x3cde38efbd4271d1U, 0x3bde38ef3d5e38efU,
  0x3cde38efbdfa000dU, 0x3bde38efbc5e38efU, 0x3d0ae395bda6aab3U, 0xbd4271d1bed3ce44U,
  0x3ca6aab3be11d55dU, 0xbcde38ef3ca6aab3U, 0xbe574728be26aab3U, 0xbd7a000dbbde38efU,
  0xbda6aab3bdb48e42U, 0xbd98c724bf076ab2U, 0x3ca6aab33d0ae395U, 0x3cde38ef3d5e38efU,
  0xbdc271d13d7a000dU, 0xbd7a000d3d0ae395U, 0xbd5e38ef3d98c724U, 0x3bde38efbeaa2397U,
  0x3ca6aab3bd26aab3U, 0xbdfa000dbd4271d1U, 0xbdc271d1bd7a000dU, 0x3ca6aab33d0ae395U,
  0xbd0ae3953d26aab3U, 0xbdec1c7ebe26aab3U, 0xbd7a000dbd98c724U, 0xbdde38efbd4271d1U,
  0xbda6aab33d8ae395U, 0x3dd05560bc5e38efU, 0xbdfa000d3e348e42U, 0xbe0ae395bdd05560U,
  0xbe3b800abe505560U, 0xbe574728be505560U, 0xbdec1c7e3db48e42U, 0x3d4271d1be496399U,
  0xbe11d55d3dec1c7eU, 0xbe11d55dbe730e45U, 0xbda6aab3bd98c724U, 0xbd8ae395bda6aab3U,
  0xbdd055603e2d9c7bU, 0x3d5e38efbe0ae395U, 0xbd8ae3953e03f1ceU, 0xbd8ae395bca6aab3U,
  0xbd5e38efU, 0xbca6aab33d26aab3U, 0xbd7a000dbc5e38efU, 0x3dd05560bc5e38efU,
  0xbd0ae3953db48e42U, 0xbd4271d1bdb48e42U, 0xbd7a000dbd98c724U, 0xbdd05560bd0ae395U,
  0xbd26aab33bde38efU, 0x3e2d9c7b3d4271d1U, 0xbca6aab33dd05560U, 0xbd98c724bdfa000dU,
  0xbda6aab33ca6aab3U, 0x3ca6aab3bdde38efU, 0xbd7a000d3e26aab3U, 0x3da6aab3bd98c724U,
  0xbcde38ef3e348e42U, 0x3d7a000d3d8ae395U, 0xbdd05560be652ab6U, 0xbdfa000d3c5e38efU,
  0xbdc271d13e1fb8ecU, 0x3e11d55d3dc271d1U, 0xbd98c7243e8ae395U, 0xbd5e38ef3da6aab3U,
  0xbdfa000dbe505560U, 0xbdb48e42bca6aab3U, 0xbe18c7243ead9c7bU, 0x3e18c724bd98c724U,
  0xbe1fb8ec3e876ab2U, 0xbdc271d1bf2f58edU, 0x3bde38efbe0ae395U, 0x3d4271d13cde38efU,
  0xbd0ae39500000000U, 0xbd8ae3953e03f1ceU, 0x3d26aab3bc5e38efU, 0xbca6aab3bf364ab4U,
  0x3dec1c7ebe03f1ceU, 0x3dec1c7e3dc271d1U, 0x3d0ae3953c5e38efU, 0xbd5e38ef3e18c724U,
  0x3d5e38efbe0ae395U, 0x3d8ae395bf03f1ceU, 0x3ca6aab3bea331d0U, 0x3d0ae395bca6aab3U,
  0xbdc271d1bca6aab3U, 0x3bde38ef3cde38efU, 0x3c5e38ef3e03f1ceU, 0xbc5e38efbeef9562U,
  0xbd5e38efbca6aab3U, 0xbd8ae395bd7a000dU, 0xbe26aab33e8078eaU, 0x3dde38efbd0ae395U,
  0xbd26aab33d98c724U, 0xbdde38efbe91d55dU, 0xbd8ae395U, 0xbe03f1cebd7a000dU,
  0xbe18c7243e11d55dU, 0x3dd05560bdde38efU, 0xbd8ae3953e1fb8ecU, 0xbd98c724bdfa000dU,
  0xbd4271d1bd0ae395U, 0xbdfa000dbda6aab3U, 0xbe0ae3953e0ae395U, 0x3e11d55dbdc271d1U,
  0xbe0ae3953e11d55dU, 0xbdde38efbdec1c7eU, 0xbdc271d1bdfa000dU, 0xbdec1c7ebdde38efU,
  0xbe26aab33da6aab3U, 0x3e11d55dbdd05560U, 0xbdfa000d3db48e42U, 0xbdfa000dbd5e38efU,
  0xbd7a000dbdc271d1U, 0xbe11d55dbd98c724U, 0xbd5e38ef3e0ae395U, 0x3d4271d1bd8ae395U,
  0xbe18c7243e11d55dU, 0xbdde38efbdb48e42U, 0xbdc271d1bda6aab3U, 0xbd8ae395bd5e38efU,
  0xbda6aab33db48e42U, 0x3db48e42bd5e38efU, 0xbd5e38ef3e11d55dU, 0xbe18c724bdde38efU,
  0xbdd05560be6c1c7eU, 0xbe26aab3be18c724U, 0xbdb48e423e18c724U, 0x3e348e42be18c724U,
  0xbe2d9c7b3e83f1ceU, 0xbd5e38ef00000000U, 0xbe2d9c7bbd98c724U, 0xbd5e38efbdde38efU,
  0xbd98c7243ca6aab3U, 0x3d5e38efbe0ae395U, 0x3c5e38ef3d5e38efU, 0xbbde38ef3d7a000dU,
  0xbdb48e42bdc271d1U, 0xbe0ae3953cde38efU, 0xbdb48e4200000000U, 0x3d8ae3953d0ae395U,
  0xbd4271d13e8078eaU, 0xbdec1c7ebbde38efU, 0xbd5e38efbe6c1c7eU, 0xbd0ae395bda6aab3U,
  0xbd98c724bd8ae395U, 0xbd7a000dbd7a000dU, 0xbe0ae3953e03f1ceU, 0xbd8ae395bf3b800aU,
  0x3d4271d1be0ae395U, 0xbbde38ef3d0ae395U, 0xbd8ae395be7a000dU, 0xbd98c724bbde38efU,
  0x3d0ae395bc5e38efU, 0x3ca6aab3bf21755eU, 0x3d26aab3be496399U, 0x3da6aab33da6aab3U,
  0x3cde38efbdfa000dU, 0xbcde38ef3dc271d1U, 0xbcde38ef3cde38efU, 0xbd5e38efbefd78f1U,
  0xbd98c724be652ab6U, 0xbbde38efbe0ae395U, 0xbe8ae3953e03f1ceU, 0x3e1fb8ec00000000U,
  0xbdc271d13dec1c7eU, 0xbe348e42bec96399U, 0xbd8ae395be505560U, 0xbd7a000dbda6aab3U,
  0xbd0ae3953db48e42U, 0x3e6c1c7ebdb48e42U, 0xbd0ae3953e26aab3U, 0xbdfa000dbdfa000dU,
  0xbd26aab3be505560U, 0xbd8ae395be11d55dU, 0xbdde38ef3cde38efU, 0x3e26aab3bda6aab3U,
  0xbda6aab33dec1c7eU, 0xbe2d9c7bbdc271d1U, 0xbd7a000d3cde38efU, 0x3cde38ef00000000U,
  0xbd8ae3953e876ab2U, 0x3dde38efbd0ae395U, 0xbda6aab33dec1c7eU, 0xbd8ae3953d26aab3U,
  0xbd98c724bdde38efU, 0xbe11d55dbd5e38efU, 0xbcde38ef3e0ae395U, 0x3d98c7243d26aab3U,
  0xbd26aab33e0ae395U, 0xbdec1c7e3d4271d1U, 0xbe11d55dbdb48e42U, 0xbda6aab3bd8ae395U,
  0xbd8ae3953dd05560U, 0x3e11d55dbe03f1ceU, 0xbdc271d13dc271d1U, 0xbdfa000dbdde38efU,
  0xbe496399be505560U, 0xbe348e42be2d9c7bU, 0xbe03f1cebdb48e42U, 0x3e18c724bdc271d1U,
  0xbe4963993e03f1ceU, 0xbe03f1cebe3b800aU, 0xbd5e38efbdb48e42U, 0xbe496399be8e5c79U,
  0xbe3b800a3e11d55dU, 0x3e6c1c7ebe4271d1U, 0xbe4963993e876ab2U, 0xbdd05560bdfa000dU,
  0xbd0ae395be348e42U, 0xbdb48e42be0ae395U, 0xbd5e38ef3e496399U, 0x3e1fb8ecbe652ab6U,
  0xbd5e38ef3e348e42U, 0xbd0ae395bbde38efU, 0xbd5e38efbe26aab3U, 0xbe2d9c7bbe03f1ceU,
  0xbdb48e42bda6aab3U, 0x3dde38efbe0ae395U, 0xbe18c7243e03f1ceU, 0xbd26aab3be348e42U,
  0xbd8ae395be5e38efU, 0xbdd05560be8078eaU, 0xbe1fb8ecbe83f1ceU, 0x3d26aab3bdec1c7eU,
  0xbe730e4500000000U, 0xbe11d55dbef30e45U, 0x3d8ae3953cde38efU, 0x3da6aab33d4271d1U,
  0xbd7a000dbe03f1ceU, 0x3dfa000dbd98c724U, 0x3d0ae3953d4271d1U, 0x3d8ae395bf2331d0U,
  0x3cde38efbda6aab3U, 0xbdc271d1bd26aab3U, 0xbe11d55dbdde38efU, 0x3c5e38ef3da6aab3U,
  0xbdfa000d3c5e38efU, 0xbd8ae395be7a000dU, 0xbe03f1cebe26aab3U, 0xbcde38efbe3b800aU,
  0xbe348e42bd4271d1U, 0x3bde38efbdb48e42U, 0xbd7a000dbda6aab3U, 0xbdfa000dbdd05560U,
  0xbd98c7243d8ae395U, 0xbd4271d1bd26aab3U, 0x3d98c724bd0ae395U, 0xbd0ae395bd7a000dU,
  0x3bde38ef3d4271d1U, 0x3d98c7243e11d55dU, 0x3d0ae3953c5e38efU, 0xbd26aab33d4271d1U,
  0x3ca6aab33d26aab3U, 0x3e03f1cebd0ae395U, 0x3d8ae3953e18c724U, 0x3d98c7243e0ae395U,
  0x3d26aab33d8ae395U, 0x3d26aab3bd5e38efU, 0xbd5e38ef3e03f1ceU, 0xbbde38efbdd05560U,
  0x3ca6aab33d0ae395U, 0x3d5e38ef3dc271d1U, 0x3ca6aab3be3b800aU, 0xbda6aab33dc271d1U,
  0xbd7a000dbcde38efU, 0x3d0ae3953d4271d1U, 0x3c5e38ef3d4271d1U, 0xbd5e38ef3d26aab3U,
  0xbd7a000dbdb48e42U, 0xbdd05560bda6aab3U, 0xbe18c7243e2d9c7bU, 0x3dd05560bd7a000dU,
  0xbdc271d13d98c724U, 0xbdd05560bd7a000dU, 0x3dde38efbe6c1c7eU, 0xbdd05560bd98c724U,
  0xbdb48e423e11d55dU, 0x3dec1c7ebe11d55dU, 0xbd5e38ef3da6aab3U, 0xbe0ae3953e730e45U,
  0xbd26aab3bd7a000dU, 0x3db48e42be4271d1U, 0xbbde38ef3e6c1c7eU, 0x3e03f1cebee8a39aU,
  0x3dde38ef3e574728U, 0x3d0ae3953e3b800aU, 0xbd8ae3953da6aab3U, 0xbd98c724bdd05560U,
  0x3d98c724bbde38efU, 0xbdd05560be18c724U, 0x3d4271d13d98c724U, 0xbc5e38ef3e5e38efU,
  0xbd4271d1bca6aab3U, 0xbd4271d1bd0ae395U, 0x3d4271d1be348e42U, 0x3bde38efbe03f1ceU,
  0xbcde38efbcde38efU, 0xbd26aab33da6aab3U, 0xbd26aab3bd4271d1U, 0xbdc271d1bdd05560U,
  0xbbde38efbd7a000dU, 0x3e1fb8ecbd26aab3U, 0xbcde38ef3d4271d1U, 0xbca6aab33d0ae395U,
  0x3db48e42bca6aab3U, 0xbc5e38ef3d4271d1U, 0xbdc271d1bd0ae395U, 0x3dde38efbd4271d1U,
  0xbd98c72400000000U, 0xbd5e38efbe8e5c79U, 0x3bde38efbd4271d1U, 0xbe1fb8ecbe2d9c7bU,
  0xbe8ae395beb80726U, 0xbdfa000dbe03f1ceU, 0xbe6c1c7ebe574728U, 0xbe03f1ce3bde38efU,
  0xbca6aab3bcde38efU, 0xbd7a000dbd5e38efU, 0xbcde38efbe18c724U, 0xbe18c724bdd05560U,
  0xbd0ae395be4271d1U, 0xbcde38ef3dec1c7eU, 0x3dde38ef3e0ae395U, 0x3d5e38efbbde38efU,
  0xbca6aab3bd7a000dU, 0xbd0ae3953cde38efU, 0x3bde38efbe03f1ceU, 0xbd7a000d3e1fb8ecU,
  0x3dfa000dU, 0x3c5e38ef3d98c724U, 0xbca6aab3bd0ae395U, 0xbd7a000dbd26aab3U,
  0xbbde38efbd0ae395U, 0x3c5e38ef3e2d9c7bU, 0xbc5e38ef3dec1c7eU, 0x3d7a000dbbde38efU,
  0x3da6aab3bdde38efU, 0xbdb48e42bdfa000dU, 0x3d98c724be26aab3U, 0x3da6aab3be1fb8ecU,
  0x3dde38ef3bde38efU, 0xbd5e38ef3dd05560U, 0x3d0ae3953d0ae395U, 0xbca6aab33e4271d1U,
  0x3dd055603dec1c7eU, 0x3c5e38ef3dc271d1U, 0xbe2d9c7bbdb48e42U, 0xbe18c724bd8ae395U,
  0xbd26aab33dd05560U, 0x3dde38efbd98c724U, 0xbcde38ef3e2d9c7bU, 0xbd26aab3bdde38efU,
  0x3da6aab33d7a000dU, 0x3d26aab33cde38efU, 0x3d7a000d3e6c1c7eU, 0xbd5e38efbe03f1ceU,
  0x3e03f1ce3cde38efU, 0x3dec1c7e3e730e45U, 0xbda6aab3bc5e38efU, 0x3d4271d13e26aab3U,
  0x3e18c7243d4271d1U, 0xbe18c7243e4271d1U, 0x3e2d9c7bbd98c724U, 0x3dd055603e954e41U,
  0xbdde38ef3c5e38efU, 0xbdde38efbc5e38efU, 0x3d8ae3953dfa000dU, 0xbc5e38ef3bde38efU,
  0xbd7a000d3dd05560U, 0x3d4271d13ca6aab3U, 0xbd7a000dbcde38efU, 0xbcde38ef3d98c724U,
  0x3dfa000d3dfa000dU, 0xbd0ae3953db48e42U, 0xbc5e38ef00000000U, 0x3db48e42be730e45U,
  0xbdb48e42bcde38efU, 0xbd7a000dbda6aab3U, 0xbdd05560bdb48e42U, 0x3d98c724bcde38efU,
  0xbe1fb8ecbbde38efU, 0xbcde38efbeb1155eU, 0xbc5e38efbdd05560U, 0xbe03f1cebe348e42U,
  0xbe6c1c7ebe496399U, 0xbd0ae395U, 0xbe348e42be2d9c7bU, 0xbdde38efbede38efU,
  0xbd98c724bd8ae395U, 0xbe26aab3bd4271d1U, 0xbe18c724be91d55dU, 0x3ca6aab3bda6aab3U,
  0xbe505560be0ae395U, 0xbd98c724be505560U, 0x3d4271d13db48e42U, 0x3ca6aab300000000U,
  0xbca6aab3bd5e38efU, 0x3ca6aab3bdb48e42U, 0xbc5e38ef3bde38efU, 0x3d98c724bd4271d1U,
  0x3dc271d13e1fb8ecU, 0x3d26aab3bcde38efU, 0xbd8ae3953d8ae395U, 0xbcde38ef3db48e42U,
  0xbdde38efbe1fb8ecU, 0xbd0ae3953dfa000dU, 0x3da6aab33e18c724U, 0x3bde38ef3e03f1ceU,
  0x3dc271d13d98c724U, 0x3dde38ef3d98c724U, 0x3c5e38ef3dec1c7eU, 0x3d8ae3953e03f1ceU,
  0xbbde38ef3dd05560U, 0xbd7a000dbdfa000dU, 0xbe1fb8ec3c5e38efU, 0x3d8ae395bd7a000dU,
  0xbe26aab33d98c724U, 0xbdb48e42be8078eaU, 0x3dc271d13bde38efU, 0x3c5e38ef3cde38efU,
  0xbd7a000d3da6aab3U, 0x3d5e38ef3d8ae395U, 0x3c5e38ef3e3b800aU, 0xbd0ae3953cde38efU,
  0xbe26aab3bdfa000dU, 0xbd98c724bdec1c7eU, 0xbdb48e423da6aab3U, 0x3dec1c7ebdc271d1U,
  0xbdc271d13e03f1ceU, 0xbdb48e42bd98c724U, 0x3d26aab33bde38efU, 0xbd7a000dbd5e38efU,
  0xbdc271d13cde38efU, 0x3e0ae395bbde38efU, 0xbdfa000d3e3b800aU, 0x3ca6aab3be26aab3U,
  0x3cde38ef3d7a000dU, 0xbbde38efbd26aab3U, 0xbca6aab33d8ae395U, 0x3e3b800a3da6aab3U,
  0xbe0ae3953e3b800aU, 0xbda6aab3be348e42U, 0xbd0ae395bd0ae395U, 0xbd5e38efbbde38efU,
  0xbca6aab33e9c4008U, 0x3dde38ef3dc271d1U, 0xbc5e38ef3e98c724U, 0xbc5e38efbcde38efU,
  0x3d26aab3U, 0x3d7a000d3d5e38efU, 0x3cde38ef3d26aab3U, 0x3e1fb8ec3e574728U,
  0x3db48e423e18c724U, 0xbc5e38efbca6aab3U, 0x3cde38ef3d98c724U, 0x3cde38ef3d26aab3U,
  0xbca6aab3bd26aab3U, 0x3ca6aab3bca6aab3U, 0xbd26aab3bd0ae395U, 0xbd5e38efbe5e38efU,
  0x3c5e38efbd0ae395U, 0x3c5e38efU, 0xbd98c724be0ae395U, 0x3d26aab33d7a000dU,
  0xbdb48e42bd0ae395U, 0xbca6aab3be9c4008U, 0x3cde38efU, 0xbd7a000dbdb48e42U,
  0xbd7a000d3d26aab3U, 0x3dfa000dbc5e38efU, 0xbe0ae3953dec1c7eU, 0xbd8ae395bd98c724U,
  0x3d8ae3953dc271d1U, 0x3dd055603d26aab3U, 0x3d8ae3953e2d9c7bU, 0xbc5e38efbd26aab3U,
  0x3e03f1ce3d4271d1U, 0x3dec1c7e3e505560U, 0x3dde38ef3dec1c7eU, 0x3e11d55d3ca6aab3U,
  0x3d4271d13c5e38efU, 0x3ca6aab33d0ae395U, 0x3d5e38ef3d5e38efU, 0x3d7a000d3d98c724U,
  0x3d4271d13d98c724U, 0xbd4271d1bca6aab3U, 0xbdb48e423e26aab3U, 0x3dc271d13dde38efU,
  0xbd98c7243d8ae395U, 0xbcde38ef3dd05560U, 0xbe03f1cebe18c724U, 0xbe348e42be11d55dU,
  0xbd98c7243dec1c7eU, 0x3e26aab3be3b800aU, 0xbdb48e423d5e38efU, 0xbdec1c7ebdb48e42U,
  0xbe03f1cebda6aab3U, 0xbd5e38efbdc271d1U, 0xbe18c7243dde38efU, 0x3e11d55dbd98c724U,
  0xbd5e38ef3e26aab3U, 0xbdfa000dbe11d55dU, 0xbe1fb8ecbe2d9c7bU, 0xbdc271d1bda6aab3U,
  0xbdc271d13e0ae395U, 0x3d98c724bdec1c7eU, 0xbe03f1ce3da6aab3U, 0xbd8ae395bdfa000dU,
  0xbe11d55dbe574728U, 0xbe4271d1be1fb8ecU, 0xbe18c7243e03f1ceU, 0x3e11d55dbe2d9c7bU,
  0xbe4963993e1fb8ecU, 0xbe11d55dbdfa000dU, 0xbe03f1cebe954e41U, 0xbe26aab3be3b800aU,
  0xbe18c7243dd05560U, 0x3e26aab3bdec1c7eU, 0xbe5747283dd05560U, 0xbe03f1cebcde38efU,
  0xbdfa000dbdb48e42U, 0xbd5e38efbe11d55dU, 0xbd5e38efbd5e38efU, 0x3e0ae395be3b800aU,
  0xbd0ae3953ca6aab3U, 0x3bde38efbe0ae395U, 0x3ca6aab3be1fb8ecU, 0xbe03f1cebdd05560U,
  0xbe98c7243e505560U, 0x3e6c1c7e3dc271d1U, 0xbe5055603e9c4008U, 0xbd7a000d3e5e38efU,
  0xbd26aab3bbde38efU, 0xbd4271d1be91d55dU, 0xbe1fb8ec3dd05560U, 0x3edac00bbd26aab3U,
  0xbe1fb8ec3e505560U, 0xbe18c7243e0ae395U, 0xbd98c724bca6aab3U, 0xbdde38efbe8ae395U,
  0xbdd055603d26aab3U, 0x3dc271d1bd5e38efU, 0xbe3b800a3e8ae395U, 0x3bde38efbda6aab3U,
  0xbdd05560be26aab3U, 0xbe11d55dbe91d55dU, 0xbeb1155e3e8e5c79U, 0x3e8078eabd5e38efU,
  0xbe8078ea3e7a000dU, 0xbe7a000d3e9fb8ecU, 0xbe505560be348e42U, 0xbdfa000dbe91d55dU,
  0xbe5055603e652ab6U, 0x3e730e45be03f1ceU, 0xbe11d55d3e6c1c7eU, 0xbe5747283d0ae395U,
  0xbdd05560bdb48e42U, 0xbe0ae395be5e38efU, 0xbe5055603e26aab3U, 0x3e18c724bdd05560U,
  0xbe5055603dec1c7eU, 0xbe26aab3be03f1ceU, 0xbdb48e42bdb48e42U, 0xbd8ae395be0ae395U,
  0xbdb48e423dc271d1U, 0x3e11d55dbd0ae395U, 0xbd98c7243e18c724U, 0xbe18c724bdec1c7eU,
  0xbe2d9c7bbe0ae395U, 0xbdb48e42be2d9c7bU, 0xbe03f1ce3e03f1ceU, 0x3d98c724bdb48e42U,
  0xbdb48e423e0ae395U, 0xbdb48e42be03f1ceU, 0xbe26aab3bd8ae395U, 0xbe11d55dbe11d55dU,
  0xbe11d55d3dfa000dU, 0x3dde38efbd8ae395U, 0xbe0ae3953dc271d1U, 0xbe03f1cebdfa000dU,
  0xbda6aab3bdde38efU, 0xbd0ae395bd7a000dU, 0xbbde38ef3d98c724U, 0x3d4271d1bd8ae395U,
  0xbdb48e423d4271d1U, 0xbd8ae395bd0ae395U, 0xbc5e38efbbde38efU, 0xbd98c724bd4271d1U,
  0xbcde38ef3d26aab3U, 0x3cde38efbd4271d1U, 0xbc5e38ef3d5e38efU, 0xbc5e38efbd7a000dU,
  0xbbde38efbda6aab3U, 0xbd26aab3bc5e38efU, 0xbda6aab33c5e38efU, 0x3d7a000dbd0ae395U,
  0xbd26aab33d98c724U, 0xbd0ae395bd4271d1U, 0x3d98c7243d0ae395U, 0xbca6aab3be03f1ceU,
  0xbca6aab33e4271d1U, 0xbbde38efbe18c724U, 0x3c5e38ef3d7a000dU, 0x3d8ae3953c5e38efU,
  0x3dde38efbca6aab3U, 0x3cde38ef3e0ae395U, 0x3e1fb8ec3d7a000dU, 0x3d0ae395bca6aab3U,
  0x3e348e42bd8ae395U, 0x3dde38ef3e348e42U, 0x3da6aab3bda6aab3U, 0x3d26aab33dc271d1U,
  0x3d5e38ef3cde38efU, 0x3bde38ef3d4271d1U, 0x3dfa000d3cde38efU, 0x3d98c7243dec1c7eU,
  0x3dc271d1bd7a000dU, 0xbd7a000dbd26aab3U, 0x3cde38efbd7a000dU, 0x3d26aab3bdde38efU,
  0xbc5e38ef00000000U, 0x3d5e38ef3cde38efU, 0x3d7a000d3e11d55dU, 0xbd7a000d3cde38efU,
  0xbdd05560be83f1ceU, 0x3d26aab3be0ae395U, 0xbbde38efbcde38efU, 0xbd26aab3bd26aab3U,
  0xbd0ae395bc5e38efU, 0xbd0ae395bca6aab3U, 0xbd8ae395bdde38efU, 0x3dec1c7e3ca6aab3U,
  0xbdb48e423d7a000dU, 0xbdfa000dbd5e38efU, 0xbdc271d1bdc271d1U, 0xbe03f1cebe3b800aU,
  0xbe1fb8ecbdfa000dU, 0x3d7a000dbdde38efU, 0xbe5055603db48e42U, 0xbe4271d1be18c724U,
  0xbca6aab3bda6aab3U, 0xbe03f1cebe348e42U, 0xbe26aab33c5e38efU, 0x3cde38efbe3b800aU,
  0xbe3b800a3dfa000dU, 0xbdd05560bdfa000dU, 0xbd8ae395bd7a000dU, 0xbd4271d1bd26aab3U,
  0xbd0ae3953d98c724U, 0x3bde38efbdb48e42U, 0xbc5e38ef3d26aab3U, 0xbd0ae3953d8ae395U,
  0x3ca6aab3bd5e38efU, 0xbd8ae3953cde38efU, 0x3c5e38ef3d0ae395U, 0x3dd05560bd26aab3U,
  0x3ca6aab33d26aab3U, 0x3ca6aab33bde38efU, 0xbd26aab3bdb48e42U, 0xbdd05560bbde38efU,
  0xbd7a000d3cde38efU, 0x3db48e42bda6aab3U, 0xbd8ae3953d98c724U, 0xbdb48e42bdb48e42U,
  0xbe03f1cebdb48e42U, 0xbd8ae395bdec1c7eU, 0xbd0ae3953ca6aab3U, 0x3d7a000dbd0ae395U,
  0xbd26aab33ca6aab3U, 0xbd7a000dbcde38efU, 0xbc5e38ef3c5e38efU, 0x3d5e38efbdd05560U,
  0x3d5e38ef3cde38efU, 0xbd26aab3bdb48e42U, 0x3ca6aab33d5e38efU, 0x3d7a000d3d98c724U,
  0x3bde38efbc5e38efU, 0xbd5e38efbbde38efU, 0x3dde38ef00000000U, 0xbd4271d1be1fb8ecU,
  0x3e0ae395bd26aab3U, 0x3e2d9c7b3d98c724U, 0x3dfa000d3d0ae395U, 0xbd4271d1bd8ae395U,
  0x3ca6aab3bd5e38efU, 0xbe496399bdfa000dU, 0x3d5e38efbd98c724U, 0x3ca6aab33d8ae395U,
  0x3d5e38ef3d8ae395U, 0x3d7a000dbbde38efU, 0x3d26aab3be91d55dU, 0xbd4271d1be03f1ceU,
  0x3d0ae395bdec1c7eU, 0x3bde38ef3dde38efU, 0x3c5e38ef3e11d55dU, 0xbd98c72400000000U,
  0x3dde38efbe8ae395U, 0xbd8ae395bdde38efU, 0x3db48e42bd5e38efU, 0xbc5e38ef3e26aab3U,
  0x3cde38ef3e876ab2U, 0xbd26aab3bcde38efU, 0xbc5e38efbe9c4008U, 0xbcde38efbe574728U,
  0xbd26aab3be1fb8ecU, 0xbcde38ef3ca6aab3U, 0x3cde38ef3e0ae395U, 0xbd98c724bcde38efU,
  0xbe03f1cebe8ae395U, 0xbdc271d1be348e42U, 0xbdd05560be348e42U, 0xbd5e38ef3cde38efU,
  0xbd98c7243dde38efU, 0xbe3b800abd0ae395U, 0xbdb48e42be5e38efU, 0x3e2d9c7bbdd05560U,
  0xbe03f1cebda6aab3U, 0xbd98c724bca6aab3U, 0xbd0ae395bd4271d1U, 0xbd4271d100000000U,
  0xbdd05560be18c724U, 0x3e2d9c7bbcde38efU, 0xbdd055603dde38efU, 0xbe57472800000000U,
  0xbdd05560bda6aab3U, 0xbcde38efbd4271d1U, 0xbd8ae3953d26aab3U, 0x3d0ae395bd26aab3U,
  0xbd0ae3953e11d55dU, 0xbe496399bd98c724U, 0xbd7a000dbbde38efU, 0xbda6aab3bd5e38efU,
  0xbd98c724bca6aab3U, 0x3d5e38efbc5e38efU, 0xbda6aab33ca6aab3U, 0xbda6aab3bd0ae395U,
  0xbcde38ef3ca6aab3U, 0xbd5e38ef3bde38efU, 0xbd0ae3953da6aab3U, 0x3d4271d1bc5e38efU,
  0xbd98c7243dc271d1U, 0xbcde38efbca6aab3U, 0x3cde38efbda6aab3U, 0x3d5e38ef3d5e38efU,
  0xbca6aab3bbde38efU, 0xbca6aab3bda6aab3U, 0x3d0ae3953d26aab3U, 0xbcde38ef3d8ae395U,
  0x3d0ae395bda6aab3U, 0x3d7a000d3c5e38efU, 0xbd0ae395bd4271d1U, 0x3dc271d1bdb48e42U,
  0xbc5e38efbd4271d1U, 0x3d98c72400000000U, 0xbd5e38efbdfa000dU, 0x3bde38efbd7a000dU,
  0x3db48e42bca6aab3U, 0xbd4271d1be26aab3U, 0x3cde38ef3d8ae395U, 0x3d8ae395bca6aab3U,
  0x3c5e38ef3c5e38efU, 0xbdb48e42U, 0xbca6aab3bca6aab3U, 0x3d4271d1bdfa000dU,
  0x3d5e38efbc5e38efU, 0x3dde38ef3bde38efU, 0x3d4271d13c5e38efU, 0x3ca6aab3bd26aab3U,
  0x3d0ae395bd98c724U, 0x3d0ae395bdd05560U, 0xbd26aab3bcde38efU, 0xbcde38ef3cde38efU,
  0x3d26aab33d0ae395U, 0x3cde38efbd4271d1U, 0xbc5e38efbdb48e42U, 0x3d98c724bd98c724U,
  0xbd5e38ef3c5e38efU, 0xbd0ae3953dde38efU, 0x3cde38ef3dec1c7eU, 0x3bde38ef3db48e42U,
  0x3bde38efbe11d55dU, 0x3cde38efbd0ae395U, 0xbd8ae395be0ae395U, 0x3d0ae3953d5e38efU,
  0x3d26aab33e348e42U, 0xbd4271d13d4271d1U, 0xbd7a000dbe348e42U, 0xbd0ae395bca6aab3U,
  0xbda6aab3be03f1ceU, 0xbda6aab33bde38efU, 0x3e26aab3U, 0xbdde38efbda6aab3U,
  0xbdde38efbdec1c7eU, 0x3c5e38efbd7a000dU, 0xbdfa000dbdec1c7eU, 0xbdde38efbd8ae395U,
  0xbcde38ef3dc271d1U, 0xbcde38efbdd05560U, 0xbe652ab6be9fb8ecU, 0xbd5e38efbda6aab3U,
  0xbe11d55dbe730e45U, 0xbe4271d13c5e38efU, 0xbdc271d1be8ae395U, 0xbe505560bdd05560U,
  0xbe26aab33d8ae395U, 0x3d8ae3953bde38efU, 0xbe5e38ef3cde38efU, 0xbe3b800abe18c724U,
  0xbe1fb8ecbe18c724U, 0xbdec1c7ebdde38efU, 0xbe348e423dfa000dU, 0x3d7a000dbe1fb8ecU,
  0xbda6aab33cde38efU, 0xbe3b800abda6aab3U, 0x3d0ae395U, 0xbd7a000dbda6aab3U,
  0xbd7a000d3d8ae395U, 0x3d4271d1bd0ae395U, 0xbda6aab33cde38efU, 0xbd8ae3953c5e38efU,
  0xbc5e38ef3d8ae395U, 0x3d4271d13da6aab3U, 0x3da6aab33d8ae395U, 0xbe03f1cebd7a000dU,
  0x3d98c724bdde38efU, 0xbca6aab3U, 0xbd98c7243cde38efU, 0x3d7a000d3ca6aab3U,
  0x3e1fb8ecbd26aab3U, 0x3d26aab33bde38efU, 0x3dde38ef3d0ae395U, 0x3dde38ef3dfa000dU,
  0x3d4271d13dc271d1U, 0xbca6aab3bdd05560U, 0x3ca6aab33e11d55dU, 0x3dc271d1be0ae395U,
  0x3cde38ef3bde38efU, 0x3d8ae3953dfa000dU, 0x3d0ae3953bde38efU, 0x3bde38efbd98c724U,
  0x3bde38efbe03f1ceU, 0x3ca6aab3be652ab6U, 0x3da6aab33d26aab3U, 0x3d26aab33dfa000dU,
  0xbc5e38ef3d5e38efU, 0x3ca6aab33bde38efU, 0x3c5e38efbdec1c7eU, 0x3da6aab3bd7a000dU,
  0x3d7a000d3c5e38efU, 0x3d26aab33d5e38efU, 0x3d98c7243dde38efU, 0x3c5e38efbd26aab3U,
  0xbd5e38efbe2d9c7bU, 0x3d7a000dbcde38efU, 0xbbde38ef3db48e42U, 0xbcde38ef3db48e42U,
  0xbcde38ef3d0ae395U, 0xbca6aab33d0ae395U, 0xbd7a000dbd5e38efU, 0x3db48e42bbde38efU,
  0x3bde38ef3d5e38efU, 0xbd26aab33cde38efU, 0xbd26aab33c5e38efU, 0xbd4271d1bd4271d1U,
  0xbdd05560bc5e38efU, 0x3d8ae3953bde38efU, 0xbdd055603ca6aab3U, 0xbe1fb8ecbca6aab3U,
  0xbcde38efbd4271d1U, 0x3c5e38ef3d26aab3U, 0xbe6c1c7e3d0ae395U, 0x3c5e38ef3c5e38efU,
  0xbe26aab3bd0ae395U, 0xbdec1c7ebdc271d1U, 0xbda6aab3bdde38efU, 0x3bde38ef3d0ae395U,
  0xbda6aab3bc5e38efU, 0xbcde38ef3cde38efU, 0xbd7a000dbd98c724U, 0xbdc271d1be2d9c7bU,
  0xbcde38efbef68729U, 0xbd5e38efbd26aab3U, 0xbd7a000d3d4271d1U, 0x3d98c7243d0ae395U,
  0xbe18c724bbde38efU, 0xbda6aab3be505560U, 0xbe3b800abda6aab3U, 0xbe4271d1be26aab3U,
  0xbe652ab63db48e42U, 0x3ca6aab3be496399U, 0xbe4963993e11d55dU, 0xbe7a000dbe7a000dU,
  0xbd98c724bbde38efU, 0xbd8ae395bd8ae395U, 0xbd4271d13dde38efU, 0x3dfa000dbd0ae395U,
  0xbdb48e423d4271d1U, 0xbd5e38efbdd05560U, 0x3e3b800a3e03f1ceU, 0xbc5e38ef3d4271d1U,
  0x3dec1c7e3e505560U, 0x3da6aab33e03f1ceU, 0x3d26aab33d8ae395U, 0x3e0ae3953dec1c7eU,
  0x3db48e42bd4271d1U, 0x3d4271d13ca6aab3U, 0x3dd055603e6c1c7eU, 0x3e348e42bdc271d1U,
  0x3e1fb8ec3dfa000dU, 0x3d8ae3953eb80726U, 0xbdc271d1bd26aab3U, 0xbdb48e42be505560U,
  0xbca6aab300000000U, 0x3dd05560be3b800aU, 0xbdec1c7e3d0ae395U, 0xbd0ae3953ed3ce44U,
  0xbdec1c7ebd7a000dU, 0xbe0ae395be5e38efU, 0xbd4271d1bdb48e42U, 0xbd4271d1be496399U,
  0xbdb48e42bdc271d1U, 0xbd0ae3953e0ae395U, 0xbd5e38efbcde38efU, 0xbda6aab3be496399U,
  0xbd5e38efbe7a000dU, 0xbdd05560be3b800aU, 0xbdfa000dbda6aab3U, 0xbbde38ef3e348e42U,
  0xbd0ae3953e03f1ceU, 0xbd98c724be0ae395U, 0xbdfa000dbdd05560U, 0x3da6aab3be3b800aU,
  0xbe03f1ce3d8ae395U, 0xbe18c7243d98c724U, 0x3da6aab33dc271d1U, 0xbbde38ef3d0ae395U,
  0xbca6aab3bd26aab3U, 0x3d98c724bdde38efU, 0xbd4271d13d7a000dU, 0xbd4271d13c5e38efU,
  0x3d98c7243c5e38efU, 0x3dd05560U, 0x3bde38ef3db48e42U, 0x3da6aab33dde38efU,
  0xbd5e38ef3d8ae395U, 0xbd8ae395be3b800aU, 0x3cde38efbdb48e42U, 0x3d98c7243dde38efU,
  0xbc5e38ef3dec1c7eU, 0xbd4271d13dde38efU, 0xbbde38ef3d0ae395U, 0xbd98c724be348e42U,
  0xbe0ae395U, 0x3dd055603ca6aab3U, 0x3bde38ef3e1fb8ecU, 0xbd26aab33dd05560U,
  0x3d4271d1bd98c724U, 0x3d0ae395be9c4008U, 0x3d7a000dbe730e45U, 0xbbde38ef3d98c724U,
  0xbd98c7243e2d9c7bU, 0xbd5e38ef3d8ae395U, 0x3ca6aab33cde38efU, 0xbdde38efbe730e45U,
  0xbe652ab6bdd05560U, 0xbdec1c7ebd8ae395U, 0xbdb48e423e4271d1U, 0x3d7a000dbe2d9c7bU,
  0xbca6aab3bbde38efU, 0xbe5055603bde38efU, 0xbd0ae395be0ae395U, 0xbdfa000dbc5e38efU,
  0xbe03f1ce3bde38efU, 0x3d0ae395bdfa000dU, 0xbca6aab33bde38efU, 0xbd8ae395bd7a000dU,
  0xbd5e38ef3dd05560U, 0xbd4271d1bdec1c7eU, 0xbd5e38ef3e2d9c7bU, 0x3e3b800abd5e38efU,
  0xbdb48e423e1fb8ecU, 0x3cde38ef3e954e41U, 0xbca6aab33e1fb8ecU, 0xbbde38efbe1fb8ecU,
  0x3dec1c7e3dfa000dU, 0x3e505560bdb48e42U, 0x3dd055603e496399U, 0x3d26aab33ed74728U,
  0xbd26aab33e0ae395U, 0xbdb48e42be954e41U, 0x3d4271d13e03f1ceU, 0x3e11d55dbeb1155eU,
  0xbca6aab33ea6aab3U, 0x3d98c7243f076ab2U, 0xbdde38efbcde38efU, 0xbe26aab3be8e5c79U,
  0x3e11d55d3d5e38efU, 0x3e5e38efbed05560U, 0x3cde38ef3e26aab3U, 0x3db48e423ec271d1U,
  0xbe18c724bc5e38efU, 0xbdec1c7ebe496399U, 0xbbde38ef3e03f1ceU, 0x3e348e42bec5eab5U,
  0x3bde38ef3e11d55dU, 0xbca6aab33e8078eaU, 0xbd98c724bd8ae395U, 0xbda6aab3bd7a000dU,
  0xbbde38ef3e4271d1U, 0x3e8ae395be11d55dU, 0xbd7a000d3e9fb8ecU, 0xbd5e38ef3e5e38efU,
  0xbd98c724bdb48e42U, 0xbdc271d1bd5e38efU, 0xbe1fb8ec3e26aab3U, 0x3e574728bca6aab3U,
  0xbda6aab33dc271d1U, 0xbdde38efbe11d55dU, 0x3d26aab3be18c724U, 0x3d98c7243bde38efU,
  0xbe18c7243e26aab3U, 0x3d4271d13dd05560U, 0xbca6aab33e11d55dU, 0xbca6aab3beb1155eU,
  0x3d5e38efbe5e38efU, 0x3e348e423dd05560U, 0xbd8ae3953e2d9c7bU, 0xbd4271d13e11d55dU,
  0x3da6aab3bd0ae395U, 0xbed74728U, 0xbca6aab3bea331d0U, 0x3e11d55d3d8ae395U,
  0x3cde38ef3e11d55dU, 0xbdb48e423d4271d1U, 0x3da6aab33db48e42U, 0xbd8ae395be8ae395U,
  0xbe6c1c7eU, 0x3e3b800a3db48e42U, 0x3e03f1ce3ec5eab5U, 0xbd98c7243d98c724U,
  0x3e1fb8ec3e8e5c79U, 0x3d5e38efbd8ae395U, 0x3dfa000d3d7a000dU, 0x3e18c7243e348e42U,
  0x3e0ae3953d98c724U, 0x3c5e38ef3da6aab3U, 0x3e4271d1bd7a000dU, 0x3dde38ef3e8078eaU,
  0xbbde38efbdec1c7eU, 0xbd8ae395bcde38efU, 0xbd5e38ef3e03f1ceU, 0x3ca6aab3bd8ae395U,
  0xbd5e38ef3bde38efU, 0xbe348e423ca6aab3U, 0xbe11d55dbe2d9c7bU, 0xbd4271d1bdb48e42U,
  0xbd5e38ef3e652ab6U, 0x3e9fb8ec3cde38efU, 0xbd0ae3953e9fb8ecU, 0xbca6aab33ebb800aU,
  0xbe03f1cebd8ae395U, 0xbd8ae395be5e38efU, 0x3d7a000d3f0ae395U, 0x3efa000dbe9fb8ecU,
  0x3d5e38ef3ef68729U, 0x3db48e423f076ab2U, 0xbe505560bda6aab3U, 0xbe26aab3be3b800aU,
  0x3dec1c7e3ed74728U, 0x3e574728be7a000dU, 0x3bde38ef3e26aab3U, 0xbbde38ef3efa000dU,
  0xbe8ae395bdd05560U, 0xbe348e42be8e5c79U, 0x3dc271d13e876ab2U, 0x3d4271d1be98c724U,
  0x3bde38ef3e1fb8ecU, 0x3bde38ef3ea331d0U, 0xbe3b800abdc271d1U, 0xbdb48e42be18c724U,
  0x3e0ae3953e4271d1U, 0xbcde38efbe730e45U, 0x3ca6aab33d26aab3U, 0x3d0ae3953e348e42U,
  0xbd98c724bdc271d1U, 0xbd5e38ef3d4271d1U, 0xbc5e38ef3d98c724U, 0x3ca6aab3bd98c724U,
  0xbbde38ef3d26aab3U, 0xbd26aab33e2d9c7bU, 0xbd5e38efbe4271d1U, 0x3da6aab33cde38efU,
  0x3ca6aab33dec1c7eU, 0x3db48e42bdde38efU, 0xbc5e38ef3e11d55dU, 0xbd26aab33bde38efU,
  0xbda6aab3be505560U, 0x3d8ae3953d7a000dU, 0x3bde38ef3e505560U, 0xbd98c7243e0ae395U,
  0x3ca6aab33d7a000dU, 0x3d4271d1beccdc7cU, 0xbd7a000dbe730e45U, 0x3e0ae3953c5e38efU,
  0x3d0ae3953e03f1ceU, 0xbe03f1ce3e2d9c7bU, 0x3d8ae3953d98c724U, 0xbcde38efbec5eab5U,
  0xbdb48e42be7a000dU, 0x3ca6aab3bbde38efU, 0x3d0ae3953dfa000dU, 0xbe2d9c7b3cde38efU,
  0x3dc271d1bd7a000dU, 0x3d26aab3be03f1ceU, 0x3bde38ef3cde38efU, 0xbc5e38efbd8ae395U,
  0x3c5e38ef3e574728U, 0xbd4271d1bd0ae395U, 0x3d98c7243dde38efU, 0x3dc271d13d5e38efU,
  0x3e2d9c7b3ea331d0U, 0x3e730e453e1fb8ecU, 0x3e496399bd8ae395U, 0xbdb48e423dec1c7eU,
  0x3e6c1c7ebdc271d1U, 0x3e8e5c793e8e5c79U, 0x3c5e38efbbde38efU, 0x3d0ae395bdec1c7eU,
  0xbc5e38ef3e26aab3U, 0x3d0ae395bdde38efU, 0x3bde38ef3cde38efU, 0x3d8ae3953d26aab3U,
  0xbd26aab3bdfa000dU, 0x3bde38ef3dc271d1U, 0x3bde38ef3dc271d1U, 0xbd7a000d3e3b800aU,
  0x3cde38efbbde38efU, 0x3e11d55dU, 0xbd0ae395be505560U, 0xbc5e38efbd5e38efU,
  0x3d8ae3953e505560U, 0xbdfa000dbdd05560U, 0x3ca6aab33bde38efU, 0x3c5e38ef3dd05560U,
  0xbe348e42be954e41U, 0xbe18c724bdd05560U, 0x3ca6aab33e5e38efU, 0xbca6aab3be2d9c7bU,
  0xbca6aab33d98c724U, 0xbc5e38efbdb48e42U, 0xbdec1c7ebe9fb8ecU, 0x3c5e38efbc5e38efU,
  0x3dd055603e954e41U, 0xbe652ab6be0ae395U, 0x3dde38ef3cde38efU, 0x3d7a000dbbde38efU,
  0x3bde38efbe730e45U, 0x3dc271d13cde38efU, 0x3dd055603e8e5c79U, 0xbdc271d1bdde38efU,
  0x3e18c724bdc271d1U, 0x3d8ae3953dc271d1U, 0x3d0ae395be03f1ceU, 0x3e26aab33d5e38efU,
  0x3db48e423d5e38efU, 0xbd7a000dbcde38efU, 0x3e2d9c7bbca6aab3U, 0x3dde38ef3e0ae395U,
  0xbdde38efU, 0x3e0ae3953da6aab3U, 0x3dc271d13d98c724U, 0xbd5e38ef3da6aab3U,
  0x3dfa000d3cde38efU, 0x3d0ae395bd98c724U, 0xbd0ae395be8ae395U, 0xbd0ae395bd4271d1U,
  0x3dde38ef3dc271d1U, 0xbe5055603d0ae395U, 0x3dde38efbca6aab3U, 0x3d7a000dbe730e45U,
  0xbd98c724be1fb8ecU, 0xbc5e38efbd4271d1U, 0x3e18c7243d26aab3U, 0xbe6c1c7ebdd05560U,
  0x3e18c7243bde38efU, 0x3dec1c7ebd0ae395U, 0xbd4271d13bde38efU, 0xbe03f1cebe0ae395U,
  0x3e5e38efbe18c724U, 0xbbde38efbe574728U, 0x3e0ae3953db48e42U, 0x3e5747283e0ae395U,
  0xbd7a000d3dfa000dU, 0xbdd05560bdd05560U, 0x3e4963993d26aab3U, 0x3dde38efbd98c724U,
  0x3db48e423e7a000dU, 0x3e2d9c7b3ea331d0U, 0x3e11d55d3ee52ab6U, 0x3e83f1ce3dec1c7eU,
  0x3e8078eabdde38efU, 0xbdb48e423cde38efU, 0x3e8ae395bd5e38efU, 0x3eb48e423ea6aab3U,
  0xbc5e38ef3e03f1ceU, 0x3cde38ef3bde38efU, 0xbc5e38ef3e03f1ceU, 0x3d98c724bd7a000dU,
  0x3d5e38efU, 0x3d8ae395be18c724U, 0x3cde38ef3dc271d1U, 0x3d26aab33d98c724U,
  0x3d0ae395bda6aab3U, 0xbe4963993c5e38efU, 0x3ca6aab3bd5e38efU, 0x3bde38efbdc271d1U,
  0xbd0ae395bd7a000dU, 0x3bde38ef3d98c724U, 0x3dd055603da6aab3U, 0xbdfa000d3bde38efU,
  0x3d7a000dbdd05560U, 0xbbde38efbda6aab3U, 0x3ca6aab3be2d9c7bU, 0xbca6aab33dde38efU,
  0x3e03f1ce3e03f1ceU, 0xbda6aab33e0ae395U, 0x3d26aab300000000U, 0x3db48e42bd98c724U,
  0xbcde38efbe4271d1U, 0x3dec1c7e3d4271d1U, 0x3dc271d13dd05560U, 0xbe5e38ef3e496399U,
  0x3e2d9c7bbdd05560U, 0x3d4271d1be496399U, 0x3d4271d1bdde38efU, 0x3e6c1c7e3d98c724U,
  0x3e5747283d4271d1U, 0xbe2d9c7b3d4271d1U, 0x3e5e38ef3d26aab3U, 0x3dde38efbe505560U,
  0x3d0ae395be0ae395U, 0x3dec1c7e3ca6aab3U, 0x3e5747283d98c724U, 0x3bde38ef3d4271d1U,
  0x3e5e38ef3ca6aab3U, 0x3e26aab33d26aab3U, 0x3da6aab3bdb48e42U, 0x3da6aab33cde38efU,
  0x3e0ae3953e1fb8ecU, 0xbd98c7243d8ae395U, 0x3e11d55d3d5e38efU, 0x3d98c724bca6aab3U,
  0xbd0ae395bd7a000dU, 0x3d4271d1bca6aab3U, 0x3dde38efbc5e38efU, 0xbe8078eabbde38efU,
  0x3d26aab3bdb48e42U, 0x3bde38ef3d26aab3U, 0xbd8ae395bca6aab3U, 0xbe348e42bdfa000dU,
  0x3bde38efbd4271d1U, 0xbbde38efbe3b800aU, 0x3d26aab3bd7a000dU, 0x3ca6aab33e11d55dU,
  0x3d5e38ef3e3b800aU, 0xbe11d55dbd0ae395U, 0x3db48e42bd0ae395U, 0x3dc271d1be11d55dU,
  0x3d4271d100000000U, 0x3cde38ef3e83f1ceU, 0x3da6aab33dec1c7eU, 0xbe1fb8ecbc5e38efU,
  0x3d7a000d3dfa000dU, 0x3e9c4008bd7a000dU, 0xbca6aab33e3b800aU, 0x3e18c7243ebef8edU,
  0x3d4271d13e8e5c79U, 0x3e348e423d98c724U, 0x3d8ae395be18c724U, 0xbd98c724bd26aab3U,
  0x3e496399bcde38efU, 0x3e3b800a3e26aab3U, 0x3c5e38efU, 0x3d7a000dbd26aab3U,
  0xbd8ae3953e574728U, 0x3d7a000dbd7a000dU, 0x3d26aab33db48e42U, 0x3d4271d13d26aab3U,
  0xbcde38efbd0ae395U, 0x3ca6aab33e3b800aU, 0xbcde38ef3d0ae395U, 0xbda6aab33e18c724U,
  0x3d8ae395bd0ae395U, 0xbd0ae395bdec1c7eU, 0xbd7a000dbd26aab3U, 0x3dc271d1U,
  0x3d7a000d3cde38efU, 0xbcde38ef3e1fb8ecU, 0x3db48e423d4271d1U, 0xbe876ab2U,
  0x3d8ae395bbde38efU, 0x3db48e423e03f1ceU, 0xbbde38efbbde38efU, 0xbd8ae3953e4271d1U,
  0x3d98c724bdb48e42U, 0xbbde38efbe4271d1U, 0x3dc271d1bd4271d1U, 0x3dd055603dde38efU,
  0x3dc271d13e11d55dU, 0xbe11d55d3e11d55dU, 0x3e1fb8ecbd4271d1U, 0x3dd05560bd5e38efU,
  0x3d26aab3bcde38efU, 0x3db48e423c5e38efU, 0x3db48e423dc271d1U, 0xbd98c7243e18c724U,
  0x3dec1c7ebd4271d1U, 0x3d8ae395bdd05560U, 0xbca6aab33bde38efU, 0xbd5e38efbd7a000dU,
  0x3ca6aab3bd0ae395U, 0xbda6aab33ca6aab3U, 0x3d98c7243d26aab3U, 0x3ca6aab3U,
  0x3db48e423e03f1ceU, 0x3d4271d13d7a000dU, 0x3e11d55dbca6aab3U, 0xbd5e38efbbde38efU,
  0x3dde38ef3da6aab3U, 0x3e348e423e574728U, 0x3d4271d13e652ab6U, 0xbd8ae3953cde38efU,
  0x3da6aab3bdde38efU, 0xbbde38efbd8ae395U, 0x3d7a000dbbde38efU, 0x3db48e423e505560U,
  0x3dde38ef3e8078eaU, 0xbd5e38ef3c5e38efU, 0x3d98c724be03f1ceU, 0x3e5e38efbe03f1ceU,
  0xbd0ae3953d98c724U, 0x3e0ae3953ed3ce44U, 0x3dd055603e8078eaU, 0xbdb48e423c5e38efU,
  0x3d26aab3be18c724U, 0x3e9c4008bd4271d1U, 0x3d4271d13d0ae395U, 0x3e18c7243eaa2397U,
  0x3db48e423e83f1ceU, 0xbd7a000d3da6aab3U, 0xbca6aab33dd05560U, 0x3e83f1cebd8ae395U,
  0x3c5e38ef3e11d55dU, 0x3d26aab33ed3ce44U, 0xbd7a000d3e18c724U, 0x3e03f1cebc5e38efU,
  0x3dd05560bd8ae395U, 0xbd7a000d3c5e38efU, 0x3e1fb8ec3d7a000dU, 0x3d8ae3953e348e42U,
  0xbca6aab33e0ae395U, 0x3dd05560bd7a000dU, 0x3d8ae3953e11d55dU, 0xbd0ae395be03f1ceU,
  0x3dec1c7e3ca6aab3U, 0x3e11d55dbdc271d1U, 0x3c5e38ef3d4271d1U, 0x3ca6aab33d98c724U,
  0x3dfa000dbd0ae395U, 0xbe5747283e348e42U, 0x3d26aab3bd7a000dU, 0x3d4271d1be8e5c79U,
  0x3dec1c7ebd98c724U, 0x3d5e38ef3d26aab3U, 0x3d26aab3bd26aab3U, 0xbe0ae3953d98c724U,
  0x3da6aab3bcde38efU, 0xbe7a000dU, 0x3dde38efbd7a000dU, 0x3e0ae3953db48e42U,
  0x3c5e38efbd5e38efU, 0xbda6aab33dec1c7eU, 0x3d5e38efbdb48e42U, 0xbbde38efbd98c724U,
  0x3d0ae395bc5e38efU, 0x3d0ae3953d26aab3U, 0x3d98c724bd0ae395U, 0xbd98c7243dc271d1U,
  0x3d4271d1bdfa000dU, 0x3d5e38efbdc271d1U, 0x3d4271d1bdb48e42U, 0xbd7a000dU,
  0xbd0ae395bd98c724U, 0xbe11d55dbca6aab3U, 0x3c5e38efbd5e38efU, 0xbd8ae395bdec1c7eU,
  0xbd0ae395bd7a000dU, 0xbdd05560be11d55dU, 0x3c5e38efbd7a000dU, 0xbd5e38efbdde38efU,
  0xbc5e38ef3c5e38efU, 0xbcde38ef3c5e38efU, 0xbd5e38ef3d8ae395U, 0xbd0ae395bd5e38efU,
  0xbd5e38efbe0ae395U, 0xbd0ae395bdec1c7eU, 0xbda6aab3bd0ae395U, 0xbbde38ef3e2d9c7bU,
  0x3d7a000d3e11d55dU, 0xbd4271d1bdb48e42U, 0x3d8ae395be2d9c7bU, 0x3dde38efbdfa000dU,
  0xbd26aab3bd0ae395U, 0x3cde38ef3e876ab2U, 0x3dfa000d3e8078eaU, 0xbca6aab33d98c724U,
  0x3dec1c7ebdfa000dU, 0x3e7a000dbca6aab3U, 0xbd0ae3953d5e38efU, 0x3e03f1ce3ed3ce44U,
  0x3da6aab33e7a000dU, 0x3bde38ef3cde38efU, 0xbd98c724bc5e38efU, 0x3e91d55dbdec1c7eU,
  0xbdc271d13d98c724U, 0x3ec96399U, 0x3bde38ef3e505560U, 0x3cde38ef3cde38efU,
  0x3dec1c7e3d7a000dU, 0x3da6aab3bd0ae395U, 0x3d98c7243dc271d1U, 0x3e26aab33f21755eU,
  0xbcde38efbcde38efU, 0xbc5e38ef3d26aab3U, 0x3cde38ef3d98c724U, 0x3dd055603d0ae395U,
  0x3bde38ef3e18c724U, 0x3bde38ef3d5e38efU, 0xbd0ae395bc5e38efU, 0xbd0ae3953c5e38efU,
  0xbdb48e423c5e38efU, 0x3dc271d1bda6aab3U, 0xbd8ae3953d0ae395U, 0xbbde38efbdd05560U,
  0x3d4271d13c5e38efU, 0xbdc271d1U, 0xbd4271d1bd0ae395U, 0x3e0ae3953d7a000dU,
  0xbd26aab33e18c724U, 0x3c5e38efbe8e5c79U, 0x3d0ae3953d5e38efU, 0x3ca6aab3be11d55dU,
  0xbdc271d1bbde38efU, 0x3e26aab33dde38efU, 0xbca6aab33e18c724U, 0xbd0ae395be11d55dU,
  0x3e26aab3bbde38efU, 0x3ca6aab3bd4271d1U, 0xbd5e38efbe2d9c7bU, 0x3c5e38ef3d26aab3U,
  0x3cde38efbbde38efU, 0xbd4271d1bdd05560U, 0x3d4271d1bca6aab3U, 0xbda6aab3bdfa000dU,
  0xbda6aab3be348e42U, 0xbdd05560bcde38efU, 0xbdd05560bd98c724U, 0x3ca6aab3bd5e38efU,
  0x3bde38ef3bde38efU, 0xbca6aab3bdd05560U, 0x3cde38efbe505560U, 0xbe496399be348e42U,
  0x3cde38efbe2d9c7bU, 0xbd26aab3U, 0xbcde38efbdc271d1U, 0xbda6aab3be505560U,
  0xbd5e38efbea331d0U, 0xbe0ae395be1fb8ecU, 0xbd7a000dbe11d55dU, 0xbda6aab33c5e38efU,
  0xbdfa000dbd0ae395U, 0xbe4271d1be2d9c7bU, 0xbdde38efbea331d0U, 0xbd98c724be876ab2U,
  0xbe0ae395be574728U, 0xbdec1c7e3dc271d1U, 0x3cde38ef3dc271d1U, 0xbd7a000d3d0ae395U,
  0xbd26aab3be18c724U, 0xbca6aab3be1fb8ecU, 0x3d4271d1bda6aab3U, 0x3e03f1ce3e7a000dU,
  0x3dc271d13e505560U, 0xbd0ae395bd98c724U, 0x3d26aab3bdec1c7eU, 0x3e18c724bd26aab3U,
  0xbd0ae3953cde38efU, 0x3dc271d13ebef8edU, 0xbc5e38ef3db48e42U, 0x3c5e38ef3da6aab3U,
  0x3d7a000dbe0ae395U, 0x3bde38efbd4271d1U, 0x3d0ae395bd26aab3U, 0x3dd055603e9fb8ecU,
  0x3cde38ef3d7a000dU, 0x3cde38efbca6aab3U, 0x3c5e38ef3dec1c7eU, 0x3bde38efbd4271d1U,
  0xbda6aab33d4271d1U, 0x3cde38ef3e652ab6U, 0x3d26aab3bda6aab3U, 0xbbde38efU,
  0xbbde38ef3d8ae395U, 0x3ca6aab33cde38efU, 0x3d5e38ef3d26aab3U, 0xbd5e38ef3da6aab3U,
  0xbd4271d1bd26aab3U, 0xbd5e38efbcde38efU, 0xbdc271d13d98c724U, 0x3ca6aab3bc5e38efU,
  0xbdde38ef3da6aab3U, 0xbe18c724bd7a000dU, 0xbe0ae395be18c724U, 0xbe4271d1bd8ae395U,
  0xbe0ae3953c5e38efU, 0x3da6aab3be18c724U, 0xbdec1c7e3d7a000dU, 0xbdec1c7ebc5e38efU,
  0xbe18c724be496399U, 0xbe348e42be496399U, 0xbdc271d100000000U, 0x3e26aab3be2d9c7bU,
  0xbe18c7243d7a000dU, 0xbe5055603c5e38efU, 0xbe2d9c7bbe18c724U, 0xbe652ab6be8078eaU,
  0xbea331d0be03f1ceU, 0x3e26aab3be505560U, 0xbe8e5c793d8ae395U, 0xbe98c724bc5e38efU,
  0xbe26aab3bd4271d1U, 0xbe348e42bebef8edU, 0xbeaa23973d26aab3U, 0x3e574728be5e38efU,
  0xbed05560bbde38efU, 0xbe8e5c793e505560U, 0xbd98c7243d4271d1U, 0xbca6aab3be6c1c7eU,
  0xbe7a000dbd0ae395U, 0x3dde38efbe11d55dU, 0xbe8078eabbde38efU, 0xbe2d9c7b3dc271d1U,
  0xbe18c7243c5e38efU, 0xbd26aab3be496399U, 0xbe652ab6be18c724U, 0x3c5e38efbe3b800aU,
  0xbe9fb8ecbe3b800aU, 0xbdec1c7ebe1fb8ecU, 0xbe03f1ce00000000U, 0xbe3b800abdec1c7eU,
  0xbe876ab2be98c724U, 0xbd4271d1be4271d1U, 0xbeaa2397be3b800aU, 0xbdec1c7ebe876ab2U,
  0xbdfa000dbbde38efU, 0xbe6c1c7ebe18c724U, 0xbe5e38efbca6aab3U, 0x3d0ae395bdb48e42U,
  0xbe91d55d3d0ae395U, 0xbe4271d1be26aab3U, 0xbd26aab3bd5e38efU, 0xbd8ae395be876ab2U,
  0xbe5055603dec1c7eU, 0x3e2d9c7bbe18c724U, 0xbea6aab33d7a000dU, 0xbe4963993e11d55dU,
  0xbdb48e42bdd05560U, 0xbd5e38efbe03f1ceU, 0xbdc271d13da6aab3U, 0x3e18c724bdde38efU,
  0xbe26aab33dc271d1U, 0xbe11d55d3da6aab3U, 0xbd4271d1bd4271d1U, 0xbc5e38efbd0ae395U,
  0xbd8ae3953d98c724U, 0x3db48e42bd0ae395U, 0xbdec1c7e3d7a000dU, 0xbda6aab3bd5e38efU,
  0x3ca6aab3bd0ae395U, 0xbd8ae395bd7a000dU, 0xbd5e38ef3cde38efU, 0x3dec1c7e00000000U,
  0xbd0ae3953ca6aab3U, 0xbdc271d1bdb48e42U, 0xbc5e38ef3ca6aab3U, 0x3cde38ef3ca6aab3U,
  0xbca6aab33ca6aab3U, 0xbc5e38efbca6aab3U, 0x3d0ae395bd5e38efU, 0xbd26aab3bd26aab3U,
  0x3d98c7243ca6aab3U, 0xbcde38efbc5e38efU, 0x3cde38ef3d0ae395U, 0xbca6aab3bbde38efU,
  0xbd0ae395bcde38efU, 0xbd0ae395bca6aab3U, 0x3d8ae3953d5e38efU, 0x3ca6aab3bca6aab3U,
  0x3d7a000d3d26aab3U, 0xbd5e38efbbde38efU, 0x3d5e38ef3ca6aab3U, 0x3d0ae3953dc271d1U,
  0x3cde38ef3d8ae395U, 0x3db48e423dd05560U, 0x3d5e38ef3dde38efU, 0x3d26aab300000000U,
  0x3d7a000d3ca6aab3U, 0xbd26aab33e11d55dU, 0xbbde38ef3d4271d1U, 0x3d8ae3953bde38efU,
  0x3d4271d1bcde38efU, 0x3d7a000dU, 0xbc5e38ef3bde38efU, 0xbbde38ef3db48e42U,
  0x3d8ae3953d98c724U, 0x3dc271d13dec1c7eU, 0x3d26aab3be0ae395U, 0xbd8ae3953d7a000dU,
  0x3d5e38efbca6aab3U, 0x3dd055603cde38efU, 0x3d5e38efbbde38efU, 0x3c5e38efbc5e38efU,
  0xbd5e38efbcde38efU, 0x3d0ae3953d4271d1U, 0xbca6aab33d26aab3U, 0x3c5e38efbca6aab3U,
  0x3d0ae39500000000U, 0x3d26aab33c5e38efU, 0x3ca6aab33bde38efU, 0x3d4271d13bde38efU,
  0x3bde38ef3d7a000dU, 0xbda6aab33cde38efU, 0x3c5e38efbd4271d1U, 0x3ca6aab3bd7a000dU,
  0xbcde38efbd5e38efU, 0xbd0ae395U, 0xbcde38ef3da6aab3U, 0xbd7a000d3d5e38efU,
  0x3c5e38efbc5e38efU, 0x3dd05560bbde38efU, 0x3ca6aab3be11d55dU, 0x3bde38efbd5e38efU,
  0xbbde38ef3d8ae395U, 0x3ca6aab3U, 0xbd4271d13d5e38efU, 0xbd0ae3953dc271d1U,
  0x3d7a000dbd98c724U, 0xbd4271d13ca6aab3U, 0x3ca6aab33c5e38efU, 0xbcde38ef3cde38efU,
  0xbd26aab33bde38efU, 0xbd5e38efbd98c724U, 0xbdb48e42bcde38efU, 0xbd5e38efbd4271d1U,
  0xbd5e38ef3d0ae395U, 0xbd98c724be11d55dU, 0xbcde38ef3d26aab3U, 0x3ca6aab33d26aab3U,
  0xbc5e38efbca6aab3U, 0x3cde38efbd0ae395U, 0x3c5e38ef00000000U, 0x3d0ae395bca6aab3U,
  0x3d4271d1bca6aab3U, 0xbd0ae39500000000U, 0xbc5e38efbc5e38efU, 0xbca6aab33cde38efU,
  0x3d7a000dbd26aab3U, 0xbd4271d1bc5e38efU, 0x3dd055603db48e42U, 0x3d5e38ef3bde38efU,
  0x3da6aab3bca6aab3U, 0xbd4271d1bbde38efU, 0x3dde38ef3c5e38efU, 0x3d7a000d3d7a000dU,
  0x3da6aab33e03f1ceU, 0x3d4271d13d8ae395U, 0x3d7a000d3ca6aab3U, 0xbd8ae3953dd05560U,
  0x3d4271d1bd5e38efU, 0x3d98c7243d7a000dU, 0x3cde38ef3e03f1ceU, 0x3dfa000d00000000U,
  0x3c5e38efbd4271d1U, 0xbe348e423bde38efU, 0x3d26aab3be18c724U, 0xbbde38ef3d8ae395U,
  0x3cde38ef3e730e45U, 0xbcde38efbbde38efU, 0x3dec1c7ebc5e38efU, 0xbe03f1cebd7a000dU,
  0x3db48e42be0ae395U, 0x3e03f1ce3d8ae395U, 0x3d4271d13e2d9c7bU, 0xbd26aab33da6aab3U,
  0x3d5e38efbcde38efU, 0xbe18c7243e03f1ceU, 0x3d26aab3be83f1ceU, 0x3d26aab33dd05560U,
  0x3d5e38ef3e6c1c7eU, 0xbd4271d13cde38efU, 0x3d5e38efbe348e42U, 0x3d5e38efbbde38efU,
  0xbd26aab3be0ae395U, 0x3dd055603da6aab3U, 0x3cde38ef3e730e45U, 0xbc5e38ef3c5e38efU,
  0xbd0ae395be652ab6U, 0xbd8ae395bbde38efU, 0xbd0ae395bdec1c7eU, 0xbd7a000d3da6aab3U,
  0x3ca6aab33dc271d1U, 0xbd7a000dbd98c724U, 0xbcde38efbebef8edU, 0xbe18c724bd0ae395U,
  0xbd5e38efbdde38efU, 0xbdd055603bde38efU, 0x3da6aab33dc271d1U, 0xbd0ae395bd7a000dU,
  0xbdd05560bec96399U, 0xbd7a000dbd26aab3U, 0xbd7a000dbdec1c7eU, 0xbe11d55dbd7a000dU,
  0x3d4271d1bda6aab3U, 0xbda6aab3bdd05560U, 0xbe11d55dbe2d9c7bU, 0x3d4271d1bd0ae395U,
  0xbe3b800a3d7a000dU, 0xbe505560bdb48e42U, 0xbd5e38efbbde38efU, 0xbd7a000dbd26aab3U,
  0xbdb48e423d8ae395U, 0xbd4271d13d7a000dU, 0xbcde38ef3dec1c7eU, 0xbe348e423d8ae395U,
  0xbbde38ef3c5e38efU, 0xbd98c724bdec1c7eU, 0xbc5e38ef3c5e38efU, 0xbd5e38efbda6aab3U,
  0xbda6aab3bd7a000dU, 0xbd0ae395bd7a000dU, 0x3d26aab3bc5e38efU, 0x3cde38efbca6aab3U,
  0xbcde38ef3d7a000dU, 0xbd26aab33d0ae395U, 0xbca6aab3bca6aab3U, 0xbc5e38efbc5e38efU,
  0x3dd055603dde38efU, 0x3d5e38ef3bde38efU, 0x3dfa000d3d5e38efU, 0xbdb48e42bcde38efU,
  0x3d4271d1bbde38efU, 0x3d8ae3953dfa000dU, 0x3e11d55d3e574728U, 0x3d5e38ef3d26aab3U,
  0x3e11d55dbcde38efU, 0xbdec1c7ebda6aab3U, 0x3e18c724bdde38efU, 0x3da6aab33dd05560U,
  0x3e18c7243e1fb8ecU, 0x3d5e38efbcde38efU, 0x3e03f1ce3d0ae395U, 0x3d26aab3be496399U,
  0x3e03f1cebd26aab3U, 0x3dfa000d3e505560U, 0x3e18c7243dd05560U, 0x3bde38efbd0ae395U,
  0x3e3b800a3ca6aab3U, 0x3ca6aab3be91d55dU, 0x3dd05560bdc271d1U, 0x3e3b800a3e505560U,
  0x3e03f1ce3e18c724U, 0x3d4271d13ca6aab3U, 0x3dd05560bdec1c7eU, 0x3d26aab3be6c1c7eU,
  0x3d8ae395bd0ae395U, 0x3dd055603e3b800aU, 0x3dd055603e3b800aU, 0x3d26aab300000000U,
  0x3d4271d1bd26aab3U, 0x3d0ae395bdb48e42U, 0xbd4271d1bda6aab3U, 0x3db48e423dfa000dU,
  0x3ca6aab33d98c724U, 0xbbde38efbd98c724U, 0xbcde38efbe8078eaU, 0xbc5e38efbca6aab3U,
  0xbc5e38efbe4271d1U, 0x3d26aab33d5e38efU, 0x3bde38ef3d5e38efU, 0xbd26aab300000000U,
  0xbd98c724be83f1ceU, 0x3bde38efbcde38efU, 0xbe11d55dbe1fb8ecU, 0xbe0ae395bca6aab3U,
  0xbcde38ef3cde38efU, 0xbd0ae39500000000U, 0xbd5e38efbe1fb8ecU, 0xbdc271d13d4271d1U,
  0xbd98c724bdec1c7eU, 0xbd0ae395bdec1c7eU, 0xbdec1c7ebca6aab3U, 0xbcde38efbd4271d1U,
  0xbe11d55dbe91d55dU, 0xbdec1c7ebbde38efU, 0xbe3b800abe18c724U, 0xbe18c724be11d55dU,
  0xbd7a000dbd0ae395U, 0xbdfa000dbd26aab3U, 0xbdfa000dbd7a000dU, 0xbc5e38ef3d4271d1U,
  0xbe11d55dbd7a000dU, 0xbdec1c7ebdd05560U, 0xbdfa000dbd98c724U, 0xbd8ae395bdc271d1U,
  0xbdd05560bcde38efU, 0x3bde38ef3d4271d1U, 0xbdc271d13c5e38efU, 0xbd98c724bd7a000dU,
  0x3da6aab3bbde38efU, 0x3d0ae3953d26aab3U, 0xbc5e38ef3c5e38efU, 0x3d26aab33cde38efU,
  0x3d4271d1bc5e38efU, 0x3c5e38ef3d4271d1U, 0x3e03f1ce3e26aab3U, 0x3e11d55d3d0ae395U,
  0x3e18c7243d4271d1U, 0xbd0ae3953db48e42U, 0x3db48e423ca6aab3U, 0x3d8ae3953dfa000dU,
  0x3dc271d13dec1c7eU, 0x3db48e42bdd05560U, 0x3dd055603db48e42U, 0x3db48e423cde38efU,
  0x3d0ae3953d26aab3U, 0x3e18c7243e652ab6U, 0x3bde38ef00000000U, 0xbbde38efbe03f1ceU,
  0x3d7a000d3e03f1ceU, 0x3d26aab3bd7a000dU, 0x3d5e38efbca6aab3U, 0x3dec1c7e3e8ae395U,
  0xbbde38efbda6aab3U, 0xbda6aab3be03f1ceU, 0x3d0ae395bd98c724U, 0xbd8ae395be7a000dU,
  0x3d7a000dbd0ae395U, 0x3da6aab33e98c724U, 0x3d8ae395U, 0xbdec1c7ebe574728U,
  0xbd26aab3bd26aab3U, 0xbe5e38efbe8e5c79U, 0xbd98c724bd98c724U, 0x3d8ae3953ec271d1U,
  0xbd0ae3953d7a000dU, 0xbca6aab3bca6aab3U, 0x3dde38efbdec1c7eU, 0xbe2d9c7bbe730e45U,
  0x3cde38efbd8ae395U, 0x3dc271d13e3b800aU, 0x3d4271d1bd7a000dU, 0x3e0ae3953bde38efU,
  0x3d5e38ef3d8ae395U, 0xbe505560bd7a000dU, 0x3d8ae3953c5e38efU, 0xbcde38ef3bde38efU,
  0xbd8ae395bdd05560U, 0x3da6aab33d5e38efU, 0x3d5e38ef3d7a000dU, 0xbe26aab33dd05560U,
  0x3d4271d1bc5e38efU, 0x3d8ae395be03f1ceU, 0x3c5e38efbe03f1ceU, 0x3dfa000d3dde38efU,
  0xbcde38efbd0ae395U, 0xbe0ae3953dc271d1U, 0x3bde38efbdfa000dU, 0xbd8ae395be652ab6U,
  0xbd8ae395be7a000dU, 0x3bde38ef3d4271d1U, 0xbca6aab33c5e38efU, 0xbdfa000d3d98c724U,
  0xbdde38efbdec1c7eU, 0xbe03f1cebe496399U, 0xbef30e45U, 0xbcde38ef3c5e38efU,
  0xbd7a000dbdd05560U, 0x3ca6aab33d8ae395U, 0x3bde38ef3d4271d1U, 0xbdec1c7ebe730e45U,
  0xbdd05560bd26aab3U, 0xbdfa000dbe348e42U, 0xbe83f1ce3d98c724U, 0x3d4271d1bdfa000dU,
  0xbe5055603d26aab3U, 0xbe6c1c7ebe954e41U, 0x3d98c7243e03f1ceU, 0x3d0ae3953bde38efU,
  0x3bde38ef3dd05560U, 0x3bde38ef3d4271d1U, 0x3dc271d1bd26aab3U, 0x3ca6aab33d8ae395U,
  0x3d4271d13d4271d1U, 0x3d26aab33e11d55dU, 0x3e2d9c7b3cde38efU, 0xbc5e38ef3e0ae395U,
  0x3e11d55d00000000U, 0x3da6aab33e5e38efU, 0xbd7a000d3cde38efU, 0xbd26aab3be652ab6U,
  0x3d8ae3953d8ae395U, 0x3d8ae395bdfa000dU, 0xbca6aab33d8ae395U, 0x3bde38ef3ec271d1U,
  0xbd8ae395bd5e38efU, 0xbd26aab3be18c724U, 0x3dde38ef3d4271d1U, 0x3cde38efbe18c724U,
  0x3d26aab33d7a000dU, 0x3e18c7243eaa2397U, 0xbe730e45bdd05560U, 0xbdc271d1be9fb8ecU,
  0x3e5055603e8e5c79U, 0xbdb48e42be8078eaU, 0x3dc271d1bd5e38efU, 0x3dec1c7e3eb48e42U,
  0xbe730e45bdde38efU, 0xbd98c724be4271d1U, 0x3e7a000d3e6c1c7eU, 0xbdb48e42bedac00bU,
  0x3dde38ef3e0ae395U, 0x3e18c7243e954e41U, 0xbdb48e42bcde38efU, 0xbd0ae395bda6aab3U,
  0x3e4271d13e8078eaU, 0xbdec1c7ebe574728U, 0x3dec1c7e3ca6aab3U, 0x3dfa000d3e11d55dU,
  0xbcde38efbdb48e42U, 0x3cde38ef3ca6aab3U, 0x3e3b800a3e954e41U, 0xbdfa000dbd98c724U,
  0x3e5e38efbc5e38efU, 0x3dfa000d3e0ae395U, 0x3da6aab3bdb48e42U, 0x3d8ae3953d0ae395U,
  0x3e4271d13e496399U, 0xbd4271d13d98c724U, 0x3e18c7243d0ae395U, 0x3e1fb8ec00000000U,
  0xbd26aab3bd7a000dU, 0x3dfa000d3d4271d1U, 0x3e03f1ce3d98c724U, 0xbe0ae3953d5e38efU,
  0x3e505560bc5e38efU, 0x3d5e38efbe83f1ceU, 0x3c5e38efbe7a000dU, 0xbc5e38efbca6aab3U,
  0x3d98c724bdb48e42U, 0xbe8078ea3e11d55dU, 0x3da6aab3be18c724U, 0xbcde38efbeccdc7cU,
  0x3ca6aab3be4271d1U, 0xbd5e38ef3d5e38efU, 0xbdfa000dbd8ae395U, 0xbcde38ef3da6aab3U,
  0xbe11d55d00000000U, 0xbe3b800abe6c1c7eU, 0xbe2d9c7bbe03f1ceU, 0xbd8ae395be574728U,
  0xbe348e423dc271d1U, 0xbbde38efbe652ab6U, 0xbe1fb8ecbd8ae395U, 0xbe18c724be26aab3U,
  0xbbde38ef3d5e38efU, 0x3da6aab33d5e38efU, 0x3d4271d100000000U, 0xbd5e38efbca6aab3U,
  0x3c5e38ef00000000U, 0x3db48e423c5e38efU, 0x3d7a000dbbde38efU, 0xbc5e38ef3cde38efU,
  0x3d0ae3953cde38efU, 0x3d8ae3953dfa000dU, 0x3ca6aab33ca6aab3U, 0xbd5e38ef3dde38efU,
  0xbe26aab3be11d55dU, 0xbdc271d1bd5e38efU, 0x3d5e38ef3ea6aab3U, 0x3e8e5c79bdc271d1U,
  0xbca6aab33eaa2397U, 0x3ca6aab33e83f1ceU, 0xbe8e5c79bdde38efU, 0x3cde38efbe0ae395U,
  0x3e26aab33efd78f1U, 0x3e7a000dbd98c724U, 0x3db48e423eec1c7eU, 0x3dec1c7e3e505560U,
  0xbe876ab2be876ab2U, 0xbe26aab3be5e38efU, 0x3d98c7243f1dfc7aU, 0x3d4271d1be2d9c7bU,
  0x3dd055603e98c724U, 0x3db48e423dde38efU, 0xbe11d55dbe5e38efU, 0xbe26aab3be876ab2U,
  0x3e11d55d3ef30e45U, 0xbd26aab3beb48e42U, 0x3d8ae3953dde38efU, 0x3d98c7243e730e45U,
  0x3cde38efbca6aab3U, 0x3d26aab3bdec1c7eU, 0x3e348e423db48e42U, 0xbdde38efbe6c1c7eU,
  0x3e4271d13ca6aab3U, 0x3dec1c7e3e3b800aU, 0xbd5e38efU, 0xbd98c72400000000U,
  0x3e4963993e26aab3U, 0xbd98c724bc5e38efU, 0x3dec1c7e3d98c724U, 0x3e0ae3953e2d9c7bU,
  0x3d0ae3953d26aab3U, 0xbd4271d13d7a000dU, 0x3e348e42bbde38efU, 0xbe03f1cebca6aab3U,
  0x3e4963993d98c724U, 0x3dfa000d3e7a000dU, 0x3cde38ef3dd05560U, 0x3ca6aab33ca6aab3U,
  0x3e4271d13c5e38efU, 0xbda6aab3bd0ae395U, 0x3dde38ef3d98c724U, 0x3d7a000d3d7a000dU,
  0xbd0ae3953cde38efU, 0xbe03f1cebbde38efU, 0x3dde38efbca6aab3U, 0x3d98c724bbde38efU,
  0x3d0ae3953e4271d1U, 0x3d4271d1bdfa000dU, 0x3bde38ef00000000U, 0xbe18c724bd5e38efU,
  0xbdfa000d3e505560U, 0x3dde38ef3d5e38efU, 0xbe348e423e3b800aU, 0xbe652ab6be9fb8ecU,
  0xbe2d9c7bbe0ae395U, 0x3c5e38efbd8ae395U, 0xbdb48e42bcde38efU, 0x3bde38efbdc271d1U,
  0xbdd05560bd7a000dU, 0xbd5e38efbdd05560U, 0x3ca6aab33d7a000dU, 0xbbde38ef3d5e38efU,
  0x3d5e38efbd4271d1U, 0xbc5e38ef3d5e38efU, 0xbca6aab3bca6aab3U, 0x3d26aab300000000U,
  0xbda6aab3bdb48e42U, 0xbd4271d1bbde38efU, 0xbca6aab3bd0ae395U, 0x3e03f1ce3e2d9c7bU,
  0x3c5e38ef3dd05560U, 0xbcde38ef3e8078eaU, 0xbe3b800abda6aab3U, 0xbdb48e42be876ab2U,
  0xbd7a000d3db48e42U, 0x3ea6aab3bdde38efU, 0xbd0ae3953e876ab2U, 0xbd26aab33e348e42U,
  0xbdb48e42bda6aab3U, 0xbdec1c7ebe1fb8ecU, 0x3ca6aab33e574728U, 0x3e505560be11d55dU,
  0xbd26aab33e954e41U, 0x3c5e38ef3e03f1ceU, 0xbe03f1cebe1fb8ecU, 0xbdde38efbe11d55dU,
  0xbd0ae3953e574728U, 0x3dc271d1bd7a000dU, 0xbbde38ef3e7a000dU, 0x3d0ae395be11d55dU,
  0xbcde38efbd26aab3U, 0x3bde38efbe1fb8ecU, 0x3dde38ef3e7a000dU, 0x3d7a000dbe652ab6U,
  0x3db48e423e0ae395U, 0x3d7a000d3d26aab3U, 0x3e11d55d3d8ae395U, 0x3d26aab3bd8ae395U,
  0x3dc271d13bde38efU, 0x3dfa000dbdc271d1U, 0x3dde38efbd0ae395U, 0x3e11d55d3dde38efU,
  0x3e11d55dU, 0xbdde38efbdb48e42U, 0x3dec1c7e00000000U, 0xbcde38efU,
  0x3d8ae395bd7a000dU, 0x3d4271d13eb1155eU, 0x3d8ae3953e3b800aU, 0xbe18c7243bde38efU,
  0x3ca6aab3be3b800aU, 0xbdc271d1U, 0xbd0ae3953c5e38efU, 0x3ca6aab33ec96399U,
  0x3ca6aab33dc271d1U, 0xbdde38efbc5e38efU, 0xbbde38efbdb48e42U, 0x3e18c724be03f1ceU,
  0x3db48e42U, 0x3bde38ef3e7a000dU, 0xbbde38ef3ca6aab3U, 0xbe652ab6bd7a000dU,
  0xbdfa000dbd8ae395U, 0x3e652ab6bdd05560U, 0xbdc271d13dc271d1U, 0xbe11d55d3e348e42U,
  0xbd5e38ef3bde38efU, 0xbd8ae395bdde38efU, 0xbda6aab33da6aab3U, 0x3dec1c7ebd98c724U,
  0xbd4271d13d4271d1U, 0xbdb48e423d8ae395U, 0xbda6aab3bd7a000dU, 0xbd0ae395bda6aab3U,
  0xbc5e38ef3cde38efU, 0xbcde38efbc5e38efU, 0xbd0ae395bd26aab3U, 0xbd98c724bd5e38efU,
  0x3d5e38ef3ca6aab3U, 0x3cde38ef3db48e42U, 0x3d7a000d3c5e38efU, 0x3ca6aab33cde38efU,
  0x3c5e38efbc5e38efU, 0x3d4271d1U, 0x3c5e38efbbde38efU, 0xbbde38ef3bde38efU,
  0x3d98c7243ca6aab3U, 0xbc5e38efbd0ae395U, 0x3db48e423ca6aab3U, 0x3d4271d13e496399U,
  0xbdfa000dbd0ae395U, 0xbe505560be11d55dU, 0xbe03f1cebe496399U, 0x3dfa000dbe2d9c7bU,
  0xbe496399bca6aab3U, 0xbe5747283e1fb8ecU, 0xbd8ae3953e348e42U, 0xbe4271d1be18c724U,
  0xbe574728bdb48e42U, 0x3ea331d0be348e42U, 0xbe2d9c7b3ca6aab3U, 0xbe11d55d3e8e5c79U,
  0xbd0ae3953dc271d1U, 0xbe6c1c7ebe505560U, 0xbe348e42be18c724U, 0x3e652ab6beaa2397U,
  0xbe496399bc5e38efU, 0xbe03f1ce3dd05560U, 0x3cde38ef3d26aab3U, 0xbd4271d1be4271d1U,
  0xbd8ae395be26aab3U, 0x3d5e38efbe6c1c7eU, 0xbdfa000dbd7a000dU, 0xbca6aab33e18c724U,
  0x3ca6aab33e18c724U, 0xbe03f1cebd98c724U, 0xbca6aab3be8ae395U, 0x3c5e38efbe5e38efU,
  0x3bde38efbdb48e42U, 0x3d0ae3953e6c1c7eU, 0xbd26aab33e730e45U, 0xbd8ae395bdc271d1U,
  0x3cde38efbe03f1ceU, 0x3ca6aab3be574728U, 0xbdd05560bbde38efU, 0xbca6aab33ec271d1U,
  0x3cde38ef3d4271d1U, 0xbd98c724bd5e38efU, 0xbd5e38efbdfa000dU, 0x3e2d9c7bbe505560U,
  0xbdb48e423d5e38efU, 0xbc5e38ef3ed05560U, 0x3c5e38ef3d5e38efU, 0xbd8ae3953d5e38efU,
  0xbd98c724bd5e38efU, 0x3d98c724bca6aab3U, 0xbbde38efbd8ae395U, 0xbd8ae3953dec1c7eU,
  0x3c5e38efbd4271d1U, 0xbda6aab300000000U, 0xbe348e42bd8ae395U, 0x3d4271d1bc5e38efU,
  0xbdb48e42bdfa000dU, 0xbd8ae395bd26aab3U, 0xbd26aab3bd0ae395U, 0xbcde38efbcde38efU,
  0xbd5e38efbe03f1ceU, 0xbdc271d13bde38efU, 0xbd5e38efbe1fb8ecU, 0xbca6aab33d26aab3U,
  0xbd4271d1bc5e38efU, 0xbd4271d1bbde38efU, 0xbca6aab33d5e38efU, 0xbc5e38ef3d98c724U,
  0xbd4271d1bd5e38efU, 0xbca6aab300000000U, 0x3dc271d13e4271d1U, 0x3bde38ef3d8ae395U,
  0x3dfa000d3cde38efU, 0x3bde38ef3d0ae395U, 0x3db48e42bd5e38efU, 0x3d7a000d3cde38efU,
  0x3dec1c7e3ca6aab3U, 0xbd26aab33dec1c7eU, 0xbd5e38efbcde38efU, 0xbdc271d13e03f1ceU,
  0xbd8ae395be11d55dU, 0x3ca6aab33d8ae395U, 0x3d7a000d3cde38efU, 0xbd26aab3bdc271d1U,
  0xbd4271d1be574728U, 0x3e1fb8ecbda6aab3U, 0xbdd05560be0ae395U, 0xbe03f1ce3e6c1c7eU,
  0xbd8ae3953e03f1ceU, 0xbe496399bdde38efU, 0xbe496399be876ab2U, 0x3e03f1cebe954e41U,
  0xbe2d9c7bbdfa000dU, 0xbdc271d13e876ab2U, 0xbcde38ef3e505560U, 0xbe6c1c7ebe876ab2U,
  0xbe348e42be7a000dU, 0x3e8078eabeccdc7cU, 0xbe4271d1bca6aab3U, 0xbdb48e423ee1b1d3U,
  0xbd7a000d3e8e5c79U, 0xbd5e38efbe7a000dU, 0xbda6aab3be505560U, 0x3e496399beec1c7eU,
  0xbdb48e423d0ae395U, 0x3ca6aab33ede38efU, 0x3ca6aab33e8078eaU, 0xbe1fb8ecbd5e38efU,
  0xbd98c724bdc271d1U, 0x3e6c1c7ebea331d0U, 0xbdec1c7e3d5e38efU, 0x3d4271d13ef68729U,
  0xbc5e38ef3dde38efU, 0xbdb48e42bdec1c7eU, 0xbd5e38ef3bde38efU, 0x3d7a000dbe3b800aU,
  0xbd8ae3953c5e38efU, 0xbca6aab33f0ae395U, 0x3d0ae3953d5e38efU, 0x3d4271d13d98c724U,
  0x3cde38ef3da6aab3U, 0x3dfa000dbd5e38efU, 0x3ca6aab33ca6aab3U, 0xbcde38ef3e83f1ceU,
  0xbbde38efbd26aab3U, 0x3ca6aab33d0ae395U, 0xbc5e38efbc5e38efU, 0x3cde38efU,
  0xbd0ae3953c5e38efU, 0xbdb48e42bdc271d1U, 0x3d7a000dbe348e42U, 0x3d8ae3953d8ae395U,
  0xbcde38efbe26aab3U, 0xbdb48e42bcde38efU, 0xbd4271d1bdb48e42U, 0xbc5e38efbe730e45U,
  0xbd7a000dbe652ab6U, 0x3ca6aab33bde38efU, 0xbd4271d1bdb48e42U, 0xbdde38ef3e03f1ceU,
  0xbbde38efbdd05560U, 0xbcde38efbeb48e42U, 0xbda6aab3bd5e38efU, 0xbd98c724be3b800aU,
  0xbdfa000d3dc271d1U, 0x3d0ae395bbde38efU, 0xbe348e423d8ae395U, 0xbe18c724be2d9c7bU,
  0x3e03f1ce3dec1c7eU, 0x3d4271d1U, 0x3e11d55dbcde38efU, 0x3d5e38ef3dde38efU,
  0x3c5e38ef3c5e38efU, 0x3e03f1cebd26aab3U, 0x3da6aab33dec1c7eU, 0x3d98c724bd5e38efU,
  0x3d7a000dbdde38efU, 0xbcde38ef3dde38efU, 0xbc5e38efbd8ae395U, 0x3dd055603db48e42U,
  0x3dd055603dde38efU, 0x3d0ae3953ca6aab3U, 0x3d4271d1bd8ae395U, 0x3c5e38efbda6aab3U,
  0x3cde38efbe03f1ceU, 0xbc5e38ef3e3b800aU, 0x3db48e423d7a000dU, 0xbd4271d1bd0ae395U,
  0xbcde38efbdec1c7eU, 0x3d8ae395be496399U, 0xbca6aab3bda6aab3U, 0xbd4271d13e730e45U,
  0xbd26aab33cde38efU, 0xbe574728bdec1c7eU, 0x3c5e38efbe26aab3U, 0x3dc271d1be876ab2U,
  0xbd7a000dbe03f1ceU, 0xbc5e38ef3ec271d1U, 0xbd4271d13cde38efU, 0xbe876ab2be7a000dU,
  0xbda6aab3bd7a000dU, 0x3e496399beccdc7cU, 0xbe3b800a3d5e38efU, 0xbd8ae3953ea6aab3U,
  0xbda6aab33dec1c7eU, 0xbd8ae395be11d55dU, 0xbcde38efbd26aab3U, 0x3ca6aab3be8ae395U,
  0xbe1fb8ecbd5e38efU, 0xbd0ae3953ede38efU, 0xbcde38ef3d7a000dU, 0x3d26aab33cde38efU,
  0x3dec1c7e3d4271d1U, 0x3d0ae395be11d55dU, 0x3d4271d13ca6aab3U, 0x3cde38ef3dfa000dU,
  0x3d4271d100000000U, 0x3da6aab33dc271d1U, 0x3dec1c7e3e3b800aU, 0x3d26aab33dde38efU,
  0x3cde38ef3d4271d1U, 0x3ca6aab3bd0ae395U, 0xbc5e38efbdfa000dU, 0x3d5e38ef3d5e38efU,
  0x3d5e38efbda6aab3U, 0xbd8ae3953d7a000dU, 0xbc5e38efbdd05560U, 0xbd8ae395be2d9c7bU,
  0xbda6aab3be348e42U, 0x3dec1c7e3d7a000dU, 0xbc5e38efbd26aab3U, 0xbe03f1ce3ca6aab3U,
  0x3cde38ef3ca6aab3U, 0xbd0ae395bead9c7bU, 0x3d26aab3be83f1ceU, 0x3d5e38efbd8ae395U,
  0xbd26aab3bd8ae395U, 0xbdfa000d3dfa000dU, 0xbdd05560bd98c724U, 0xbd7a000dbe730e45U,
  0xbd98c724be18c724U, 0xbdec1c7ebdb48e42U, 0xbd98c7243cde38efU, 0x3d5e38efbd7a000dU,
  0xbdfa000dbda6aab3U, 0xbd8ae395bdde38efU, 0x3ca6aab33ca6aab3U, 0xbca6aab33da6aab3U,
  0xbbde38ef3dc271d1U, 0x3bde38ef3d4271d1U, 0x3d7a000dU, 0x3d7a000d3d0ae395U,
  0x3d7a000d3d26aab3U, 0x3dec1c7e3ca6aab3U, 0x3d8ae3953cde38efU, 0x3e18c7243d7a000dU,
  0x3dc271d1bd7a000dU, 0x3d5e38ef3e11d55dU, 0x3e1fb8ecU, 0x3d4271d1bd8ae395U,
  0x3d98c7243dd05560U, 0x3d5e38efbd8ae395U, 0x3d4271d1bc5e38efU, 0x3d26aab33e0ae395U,
  0x3dd055603d8ae395U, 0x3db48e42bd26aab3U, 0x3d26aab3bd8ae395U, 0x3d7a000dbe3b800aU,
  0xbc5e38ef3bde38efU, 0x3c5e38ef3e03f1ceU, 0xbbde38ef3d4271d1U, 0xbd4271d1be03f1ceU,
  0x3dc271d13d0ae395U, 0x3d8ae395be954e41U, 0x3d8ae3953cde38efU, 0x3d0ae3953dde38efU,
  0xbd5e38efbdde38efU, 0xbda6aab3bd8ae395U, 0x3d8ae3953c5e38efU, 0xbea331d0U,
  0x3c5e38efbbde38efU, 0x3d7a000d3e496399U, 0xbcde38efbd7a000dU, 0x3ca6aab3bbde38efU,
  0x3db48e423e26aab3U, 0x3d4271d1be652ab6U, 0x3d8ae395bca6aab3U, 0x3cde38ef3cde38efU,
  0xbd26aab3bd26aab3U, 0x3d26aab33bde38efU, 0x3d26aab33e3b800aU, 0x3d0ae3953cde38efU,
  0x3d0ae3953da6aab3U, 0x3dc271d13d7a000dU, 0x3d98c724bd5e38efU, 0x3ca6aab33d26aab3U,
  0x3cde38ef3d98c724U, 0xbd7a000d3c5e38efU, 0x3da6aab33bde38efU, 0x3da6aab3bd26aab3U,
  0xbd0ae395be03f1ceU, 0x3dec1c7ebca6aab3U, 0x3dde38efbd7a000dU, 0xbe03f1ce3c5e38efU,
  0x3dde38ef3d26aab3U, 0x3d98c724be8ae395U, 0x3ca6aab3be2d9c7bU, 0x3da6aab3bd98c724U,
  0xbc5e38efbda6aab3U, 0xbe2d9c7b3d26aab3U, 0x3cde38efbdc271d1U, 0xbe03f1cebe98c724U,
  0x3d5e38efbe652ab6U, 0xbcde38ef3d4271d1U, 0xbd98c724be0ae395U, 0xbca6aab33d26aab3U,
  0xbbde38efbd7a000dU, 0xbdfa000dbed3ce44U, 0xbda6aab33bde38efU, 0xbd7a000dbdb48e42U,
  0xbd26aab33ca6aab3U, 0xbc5e38efU, 0x3d0ae395U, 0xbd0ae395bd26aab3U,
  0x3d98c7243bde38efU, 0x3bde38efbc5e38efU, 0x3d0ae3953d98c724U, 0xbd0ae39500000000U,
  0x3db48e42bc5e38efU, 0x3d7a000d3d0ae395U, 0x3db48e423dde38efU, 0x3dd055603dc271d1U,
  0x3d8ae3953d8ae395U, 0xbe11d55dbbde38efU, 0x3dc271d1bdfa000dU, 0x3d0ae3953db48e42U,
  0x3d4271d13d0ae395U, 0x3d5e38ef3d4271d1U, 0x3e1fb8ec3d26aab3U, 0xbe0ae3953d0ae395U,
  0x3d98c724be1fb8ecU, 0x3da6aab33e1fb8ecU, 0x3c5e38ef3dd05560U, 0x3d0ae3953ca6aab3U,
  0x3e18c7243d4271d1U, 0x3d7a000dbd7a000dU, 0x3da6aab3bda6aab3U, 0x3d5e38ef3e496399U,
  0xbca6aab33dfa000dU, 0x3db48e423d5e38efU, 0x3e5055603d8ae395U, 0x3da6aab3bda6aab3U,
  0x3dfa000dbbde38efU, 0x3e652ab63dde38efU, 0x3d5e38ef3db48e42U, 0xbd98c724bd26aab3U,
  0x3d98c7243da6aab3U, 0xbc5e38ef3ca6aab3U, 0x3d8ae3953d7a000dU, 0x3dc271d13db48e42U,
  0xbcde38efbd0ae395U, 0xbbde38ef3d98c724U, 0x3dfa000d3dc271d1U, 0xbdb48e423c5e38efU,
  0x3e0ae3953d8ae395U, 0x3dd055603dfa000dU, 0xbc5e38efbd4271d1U, 0x3ca6aab33c5e38efU,
  0x3dde38ef3e5e38efU, 0xbd4271d1bcde38efU, 0x3e03f1ce3da6aab3U, 0xbd0ae3953d4271d1U,
  0x3bde38efbda6aab3U, 0x3da6aab33c5e38efU, 0x3dfa000d3d0ae395U, 0xbe0ae3953d5e38efU,
  0x3db48e423da6aab3U, 0xbe26aab3U, 0x3d26aab3bd5e38efU, 0x3cde38ef3da6aab3U,
  0x3bde38ef3e18c724U, 0xbd7a000d3da6aab3U, 0x3ca6aab33d0ae395U, 0x3d4271d1be6c1c7eU,
  0x3bde38ef3d7a000dU, 0x3ca6aab33d8ae395U, 0xbd0ae395bc5e38efU, 0xbd7a000d3d26aab3U,
  0xbbde38efbc5e38efU, 0x3ca6aab3be18c724U, 0x3bde38ef3d0ae395U, 0x3c5e38ef3d4271d1U,
  0xbd5e38ef3d0ae395U, 0xbd0ae3953e26aab3U, 0xbbde38ef3ca6aab3U, 0xbda6aab3bd8ae395U,
  0xbd8ae395bd7a000dU, 0x3c5e38efbd26aab3U, 0xbd26aab33bde38efU, 0x3c5e38ef3ca6aab3U,
  0xbd0ae395bcde38efU, 0x3ca6aab33d5e38efU, 0x3d4271d13cde38efU, 0x0U,
  0x3bde38efU, 0xbd0ae395bcde38efU, 0xbd4271d1U, 0x3bde38ef3d26aab3U,
  0x3db48e423d7a000dU, 0x3dde38efbca6aab3U, 0x3d0ae3953d8ae395U, 0xbd4271d13dd05560U,
  0x3bde38efU, 0x3c5e38efbd4271d1U, 0x3e0ae3953e2d9c7bU, 0x3e348e423d4271d1U,
  0x3d8ae39500000000U, 0xbd5e38ef3d98c724U, 0x3db48e42bda6aab3U, 0x3e348e42bd4271d1U,
  0x3d4271d13dd05560U, 0x3d26aab33e2d9c7bU, 0x3e652ab6be8078eaU, 0xbe3b800a3d98c724U,
  0x3e26aab3be1fb8ecU, 0x3e348e423d26aab3U, 0x3cde38ef3d7a000dU, 0x3d0ae3953d5e38efU,
  0x3ea331d0be83f1ceU, 0xbead9c7bbdd05560U, 0x3e0ae395be2d9c7bU, 0x3e26aab33dc271d1U,
  0x3cde38ef3d7a000dU, 0x3e03f1ceU, 0x3ead9c7bbe26aab3U, 0xbe496399bd0ae395U,
  0x3dc271d1bdfa000dU, 0x3e4271d13e2d9c7bU, 0x3cde38efbca6aab3U, 0xbe11d55d3d8ae395U,
  0x3e954e41bdec1c7eU, 0xbe3b800a3d7a000dU, 0x3e26aab33d5e38efU, 0x3e2d9c7b3e0ae395U,
  0xbc5e38efU, 0xbd98c724be18c724U, 0x3e8e5c79bc5e38efU, 0xbcde38efbd26aab3U,
  0x3db48e423d5e38efU, 0x3e11d55d3e2d9c7bU, 0xbca6aab33dfa000dU, 0x3d98c72400000000U,
  0x3e83f1ce3d0ae395U, 0xbd7a000dbcde38efU, 0x3e0ae395bca6aab3U, 0x3e2d9c7bbbde38efU,
  0xbd0ae3953e03f1ceU, 0xbc5e38ef3d8ae395U, 0x3e1fb8ecbd26aab3U, 0xbdb48e423db48e42U,
  0x3e5055603d7a000dU, 0x3d98c724bdde38efU, 0xbc5e38efbd4271d1U, 0xbd0ae395U,
  0xbd8ae3953dec1c7eU, 0x3d0ae395bbde38efU, 0xbda6aab33d8ae395U, 0xbd8ae395be2d9c7bU,
  0xbca6aab33c5e38efU, 0x3bde38efbd5e38efU, 0xbcde38ef3d26aab3U, 0xbd5e38efbd8ae395U,
  0xbcde38efbca6aab3U, 0xbc5e38efbd26aab3U, 0x3ca6aab33d5e38efU, 0xbd26aab3bbde38efU,
  0xbd26aab33bde38efU, 0x3d26aab300000000U, 0xbcde38efbcde38efU, 0x3cde38ef3d4271d1U,
  0xbd0ae3953d5e38efU, 0xbcde38ef3c5e38efU, 0x3bde38efbd7a000dU, 0xbd8ae395bcde38efU,
  0xbca6aab3bcde38efU, 0x3cde38ef3d7a000dU, 0x3d5e38ef3d4271d1U, 0xbbde38ef3cde38efU,
  0x3d26aab3bda6aab3U, 0xbca6aab33d5e38efU, 0xbd0ae395bda6aab3U, 0xbca6aab33d5e38efU,
  0xbcde38efbd0ae395U, 0x3c5e38ef3c5e38efU, 0xbcde38efbd26aab3U, 0x3ca6aab33d8ae395U,
  0xbd4271d1bcde38efU, 0xbda6aab3bd26aab3U, 0xbe505560bdec1c7eU, 0xbe0ae395bdec1c7eU,
  0xbe03f1cebdc271d1U, 0xbca6aab300000000U, 0xbe11d55d3bde38efU, 0xbe18c724be8078eaU,
  0xbe83f1cebd4271d1U, 0xbe11d55dbe6c1c7eU, 0xbe730e45bdc271d1U, 0xbca6aab3be03f1ceU,
  0xbe26aab33d4271d1U, 0xbe5e38efbe8ae395U, 0xbe98c724bd26aab3U, 0xbe5e38efbe91d55dU,
  0xbe03f1cebe730e45U, 0xbd26aab3be11d55dU, 0xbe26aab33d8ae395U, 0xbe574728be9c4008U,
  0xbe652ab6bd26aab3U, 0xbe1fb8ecbe505560U, 0xbe348e42bd26aab3U, 0xbdb48e42be26aab3U,
  0xbe1fb8ec00000000U, 0xbe348e42be8ae395U, 0xbd98c724bdb48e42U, 0xbe18c724bdc271d1U,
  0xbdd05560bdb48e42U, 0x3c5e38efbd8ae395U, 0xbe03f1ce3d5e38efU, 0xbe505560bda6aab3U,
  0xbdfa000dbd4271d1U, 0xbdec1c7ebe18c724U, 0xbe18c724bdb48e42U, 0x3ca6aab3bdc271d1U,
  0xbe1fb8ec3d98c724U, 0xbe730e45be496399U, 0xbd8ae3953d4271d1U, 0xbdb48e42bd98c724U,
  0xbdfa000d3dec1c7eU, 0x3c5e38efbd0ae395U, 0xbdec1c7e3d7a000dU, 0xbe26aab3be11d55dU,
  0xbbde38ef3d26aab3U, 0xbd7a000dbcde38efU, 0xbc5e38efbd26aab3U, 0xbd4271d13cde38efU,
  0xbdde38efbbde38efU, 0xbdfa000dbd98c724U, 0xbc5e38ef00000000U, 0xbd5e38efbca6aab3U,
  0xbd8ae395U, 0xbca6aab300000000U, 0xbca6aab3bca6aab3U, 0xbd7a000dbd98c724U,
  0x3d0ae395bca6aab3U, 0x3d26aab3bd4271d1U, 0x3d0ae395bda6aab3U, 0xbd98c724bd26aab3U,
  0x3d7a000dbd7a000dU, 0x3d8ae3953d26aab3U, 0x3d8ae3953d5e38efU, 0xbd26aab33c5e38efU,
  0x3d5e38efbca6aab3U, 0xbd8ae39500000000U, 0x3d26aab3bd8ae395U, 0x3cde38ef3bde38efU,
  0xbbde38efbd4271d1U, 0xbcde38ef3c5e38efU, 0x3d4271d1bdb48e42U, 0x3bde38efbca6aab3U,
  0x3ca6aab3bd5e38efU, 0xbd0ae395bd8ae395U, 0xbd26aab3bd98c724U, 0xbd26aab3bd4271d1U,
  0xbd4271d1bd5e38efU, 0x3bde38efbca6aab3U, 0xbdde38efbd0ae395U, 0xbd4271d1bda6aab3U,
  0xbdde38efbdc271d1U, 0xbe4271d13c5e38efU, 0xbda6aab33d8ae395U, 0x3db48e423ca6aab3U,
  0xbe1fb8ec3d26aab3U, 0xbe11d55d3ca6aab3U, 0xbd7a000d3ca6aab3U, 0xbd0ae3953d8ae395U,
  0xbca6aab33dc271d1U, 0x3e8078ea3d5e38efU, 0x3c5e38ef3e1fb8ecU, 0xbe11d55d3c5e38efU,
  0xbe26aab33e348e42U, 0xbd5e38ef3d5e38efU, 0xbd4271d13e496399U, 0x3e6c1c7e3e348e42U,
  0xbd8ae3953e18c724U, 0xbe1fb8ecbd8ae395U, 0x3dfa000dU, 0x3da6aab33e11d55dU,
  0xbd7a000d3e9c4008U, 0x3e5e38ef3e730e45U, 0xbcde38ef3d7a000dU, 0xbd0ae395bc5e38efU,
  0xbcde38ef3d4271d1U, 0x3d8ae3953d98c724U, 0xbd5e38ef3ebb800aU, 0x3e4963993e6c1c7eU,
  0xbcde38ef3e1fb8ecU, 0xbdd055603ca6aab3U, 0xbcde38ef3cde38efU, 0x3d26aab3bca6aab3U,
  0x3ca6aab33e8e5c79U, 0x3e7a000d3dec1c7eU, 0x3cde38ef3e505560U, 0x3c5e38ef3ca6aab3U,
  0xbbde38efbd4271d1U, 0x3dfa000d3dde38efU, 0x3dec1c7e3e876ab2U, 0xbdc271d13c5e38efU,
  0x3db48e42bda6aab3U, 0x3d98c7243cde38efU, 0xbca6aab3bca6aab3U, 0xbd0ae395bda6aab3U,
  0x3da6aab300000000U, 0x3cde38ef3d0ae395U, 0x3d8ae395be574728U, 0x3e0ae395bc5e38efU,
  0x3d5e38efbda6aab3U, 0x3dc271d13dc271d1U, 0x3e0ae3953cde38efU, 0xbd5e38ef3ca6aab3U,
  0x3da6aab3be0ae395U, 0x3d4271d13dd05560U, 0x3c5e38efbbde38efU, 0x3d26aab3bd26aab3U,
  0x3d98c724bdb48e42U, 0xbd0ae395bca6aab3U, 0x3bde38efbca6aab3U, 0xbbde38ef3cde38efU,
  0x3ca6aab3bca6aab3U, 0x3ca6aab33d4271d1U, 0x3d26aab3bda6aab3U, 0x3c5e38ef3d26aab3U,
  0x3cde38efbd98c724U, 0x3d26aab3bd26aab3U, 0x3d26aab33cde38efU, 0x3bde38efbd4271d1U,
  0xbd7a000d3d0ae395U, 0xbdb48e423ca6aab3U, 0xbbde38efbbde38efU, 0xbca6aab3bd26aab3U,
  0xbbde38efbda6aab3U, 0xbca6aab300000000U, 0xbd8ae395be18c724U, 0x3db48e423ca6aab3U,
  0x3bde38ef3d26aab3U, 0xbd26aab3bda6aab3U, 0x3d5e38ef3dfa000dU, 0x3ca6aab33e18c724U,
  0x3bde38ef3dc271d1U, 0x3e0ae3953e83f1ceU, 0xbd26aab33dd05560U, 0xbd4271d13cde38efU,
  0x3dc271d13e9c4008U, 0x3e8078eaU, 0xbe2d9c7b3e26aab3U, 0x3ee1b1d33f170ab2U,
  0xbdfa000d3e8ae395U, 0xbdde38ef3e1fb8ecU, 0x3bde38ef3d8ae395U, 0x3db48e423e496399U,
  0xbe5055603e11d55dU, 0x3edac00b3f05ae40U, 0xbd8ae3953ec5eab5U, 0xbe18c724bca6aab3U,
  0xbd4271d1be496399U, 0x3db48e423e3b800aU, 0xbe83f1ce3e5e38efU, 0x3e91d55d3f02355cU,
  0xbd98c7243ea6aab3U, 0xbe496399bea331d0U, 0xbcde38efbec271d1U, 0x3e652ab63e0ae395U,
  0xbe0ae3953efa000dU, 0x3eb48e423ede38efU, 0xbd98c7243eb48e42U, 0xbdec1c7ebe9c4008U,
  0x3da6aab3be9c4008U, 0x3e652ab63db48e42U, 0xbe0ae3953ee8a39aU, 0x3e954e413e98c724U,
  0x3d0ae3953ead9c7bU, 0xbe2d9c7bbe1fb8ecU, 0x3d5e38efbe6c1c7eU, 0x3e5055603d98c724U,
  0xbcde38ef3ede38efU, 0x3e1fb8ec3e3b800aU, 0x3dde38ef3e3b800aU, 0xbc5e38efbdd05560U,
  0x3d0ae395be5e38efU, 0x3e4963993e652ab6U, 0x3e26aab33eccdc7cU, 0x3d7a000d3e652ab6U,
  0x3e4271d13e348e42U, 0x3d5e38efbe11d55dU, 0x3d8ae395bc5e38efU, 0x3e3b800a3dec1c7eU,
  0x3dc271d13dc271d1U, 0xbd7a000d3d8ae395U, 0x3dec1c7e3dc271d1U, 0x3cde38ef3cde38efU,
  0x3d8ae3953d26aab3U, 0x3d4271d100000000U, 0x3bde38ef3e3b800aU, 0xbd26aab33dde38efU,
  0xbbde38ef3db48e42U, 0x3d0ae3953d98c724U, 0x3d0ae3953bde38efU, 0xbd26aab300000000U,
  0x3d0ae395bd7a000dU, 0x3c5e38efbca6aab3U, 0xbcde38efbd5e38efU, 0x3c5e38ef3ca6aab3U,
  0xbd5e38ef3dfa000dU, 0xbd98c724bd0ae395U, 0xbc5e38efbc5e38efU, 0xbd98c724bd7a000dU,
  0xbd7a000dbca6aab3U, 0x3d98c72400000000U, 0x3c5e38ef3dfa000dU, 0xbca6aab33cde38efU,
  0xbdfa000dbd26aab3U, 0xbd98c7243e348e42U, 0xbd8ae395bd98c724U, 0xbd98c7243dc271d1U,
  0x3c5e38ef3d5e38efU, 0x3cde38ef3dec1c7eU, 0xbd7a000dbd8ae395U, 0x3e3b800a3e18c724U,
  0xbd4271d13d98c724U, 0xbcde38efbd4271d1U, 0x3dc271d13d4271d1U, 0x3bde38ef3dde38efU,
  0xbe11d55d3dfa000dU, 0x3e7a000d3eaa2397U, 0xbdc271d13e0ae395U, 0xbd5e38efbe03f1ceU,
  0x3d7a000dbe496399U, 0xbc5e38ef3d8ae395U, 0xbe1fb8ec3e1fb8ecU, 0x3e3b800a3e9c4008U,
  0xbdd055603d4271d1U, 0xbe2d9c7bbe954e41U, 0xbd0ae395befa000dU, 0xbd5e38ef3d7a000dU,
  0xbe7a000d3e7a000dU, 0x3dd055603e954e41U, 0xbe0ae3953d7a000dU, 0xbe2d9c7bbf1c4008U,
  0xbd4271d1bedac00bU, 0x3e0ae3953e3b800aU, 0xbe1fb8ec3e83f1ceU, 0x3c5e38ef3eb48e42U,
  0xbcde38ef3d98c724U, 0xbe496399bf32d1d0U, 0x3d4271d1bf0ca007U, 0x3e730e453dfa000dU,
  0xbd4271d13ead9c7bU, 0x3d26aab33e954e41U, 0x3d98c7243e1fb8ecU, 0xbd5e38efbf03f1ceU,
  0x3cde38efbe9fb8ecU, 0x3e2d9c7b3d5e38efU, 0x3da6aab33eb80726U, 0x3dec1c7e3e505560U,
  0x3dde38ef3dec1c7eU, 0x3d26aab3be2d9c7bU, 0x3db48e42be98c724U, 0x3db48e423e2d9c7bU,
  0x3dfa000d3ed05560U, 0x3e1fb8ec3e574728U, 0x3e4271d13e652ab6U, 0x3d0ae395be26aab3U,
  0xbc5e38ef3d7a000dU, 0x3da6aab3bca6aab3U, 0x3da6aab33e4271d1U, 0xbe18c724bd26aab3U,
  0x3dd055603d7a000dU, 0xbd0ae395bd8ae395U, 0x3cde38ef3c5e38efU, 0x3d8ae395bbde38efU,
  0x3db48e42beb1155eU, 0xbe2d9c7bbc5e38efU, 0x3d0ae395be730e45U, 0x3da6aab33d4271d1U,
  0xbd0ae395bcde38efU, 0xbc5e38efbd0ae395U, 0x3d5e38efU, 0xbd4271d1bd0ae395U,
  0xbd4271d1bcde38efU, 0xbd98c7243d4271d1U, 0xbd8ae395bd5e38efU, 0xbe26aab3bd0ae395U,
  0xbdde38efbd98c724U, 0x3ca6aab33bde38efU, 0xbd5e38ef3bde38efU, 0xbca6aab3be4271d1U,
  0xbd8ae3953d8ae395U, 0xbe0ae395bc5e38efU, 0xbd8ae395bd98c724U, 0x3e03f1ce3ca6aab3U,
  0xbe0ae3953cde38efU, 0xbe03f1cebe4271d1U, 0x3e0ae395bd4271d1U, 0x3d4271d13da6aab3U,
  0xbd4271d13dd05560U, 0x3d8ae3953e3b800aU, 0xbca6aab3U, 0xbd7a000dbdec1c7eU,
  0x3e03f1cebe5e38efU, 0x3db48e423e11d55dU, 0x3c5e38ef3e0ae395U, 0x3dc271d13e505560U,
  0x3d0ae39500000000U, 0xbbde38efbe11d55dU, 0x3e11d55dbe1fb8ecU, 0x3e5e38ef3e5e38efU,
  0x3d0ae3953e0ae395U, 0x3cde38ef3e730e45U, 0x3e0ae395bd0ae395U, 0xbbde38efbed3ce44U,
  0xbdc271d1beaa2397U, 0x3dec1c7e3e18c724U, 0xbda6aab33d8ae395U, 0x3d7a000d3ea331d0U,
  0x3d5e38ef3e18c724U, 0xbcde38efbf2d9c7bU, 0x3d8ae395be0ae395U, 0x3e1fb8ec3e0ae395U,
  0xbdd055603e3b800aU, 0xbdd055603ead9c7bU, 0x3da6aab33d7a000dU, 0xbd0ae395bf5c7c7dU,
  0x3dec1c7ebe98c724U, 0x3e730e453e574728U, 0x3d0ae3953e11d55dU, 0xbbde38ef3e730e45U,
  0x3dde38ef3cde38efU, 0x3db48e42bf3b800aU, 0x3d5e38efbec96399U, 0x3da6aab33e11d55dU,
  0x3bde38ef3e348e42U, 0xbd7a000d3e652ab6U, 0x3da6aab33db48e42U, 0x3db48e42beccdc7cU,
  0x3bde38efbe26aab3U, 0x3db48e423d5e38efU, 0x3dfa000d3d0ae395U, 0xbd0ae3953e0ae395U,
  0x3d98c7243d98c724U, 0x3d26aab3be730e45U, 0xbd8ae395bd0ae395U, 0xbd98c724bdd05560U,
  0x3ca6aab33da6aab3U, 0x3d8ae395bd26aab3U, 0x3d26aab33d7a000dU, 0xbd4271d1bdec1c7eU,
  0x3bde38ef3bde38efU, 0xbd98c724be1fb8ecU, 0xbdd05560bc5e38efU, 0xbda6aab3bd5e38efU,
  0xbda6aab3bd4271d1U, 0xbe0ae395bea331d0U, 0xbdde38efbbde38efU, 0xbd4271d1bc5e38efU,
  0xbcde38efbd26aab3U, 0x3c5e38ef00000000U, 0xbd0ae395bbde38efU, 0x3c5e38efbdde38efU,
  0xbdd05560bd7a000dU, 0xbdfa000dbdec1c7eU, 0xbd98c724bd26aab3U, 0x3db48e423ca6aab3U,
  0xbe5055603d0ae395U, 0xbd7a000dbe7a000dU, 0xbdb48e42bd26aab3U, 0x3bde38efbd0ae395U,
  0x3bde38ef3d0ae395U, 0xbdfa000d3c5e38efU, 0xbd5e38efbdfa000dU, 0xbd26aab3bdd05560U,
  0x3d26aab3bcde38efU, 0x3dc271d13db48e42U, 0x3d98c724bd0ae395U, 0xbda6aab33d7a000dU,
  0x3d7a000dbdec1c7eU, 0x3ca6aab3be2d9c7bU, 0x3d98c7243bde38efU, 0x3e1fb8ec3e26aab3U,
  0x3db48e42bd5e38efU, 0xbdd055603e3b800aU, 0x3dde38ef3bde38efU, 0x3dde38efbe4271d1U,
  0x3dec1c7ebbde38efU, 0x3e1fb8ec3e505560U, 0x3d4271d13da6aab3U, 0xbe03f1ce3e652ab6U,
  0x3e2d9c7bbe11d55dU, 0x3d5e38efbd7a000dU, 0xbdb48e42U, 0x3d0ae3953c5e38efU,
  0xbc5e38efbe26aab3U, 0x3d26aab33e11d55dU, 0xbca6aab33e03f1ceU, 0xbda6aab3be1fb8ecU,
  0x3d0ae3953dc271d1U, 0x3d7a000dbbde38efU, 0xbe1fb8ecbda6aab3U, 0xbe03f1ce3dec1c7eU,
  0x3c5e38efbd98c724U, 0xbd7a000dbf2a2397U, 0x3e26aab3bdde38efU, 0x3e03f1ce3e0ae395U,
  0xbca6aab33d4271d1U, 0xbd5e38ef3e652ab6U, 0x3bde38efbd4271d1U, 0xbd4271d1bef68729U,
  0x3d98c724be7a000dU, 0x3e18c7243d5e38efU, 0x3cde38ef3c5e38efU, 0xbd7a000d3dd05560U,
  0x3dfa000d3d0ae395U, 0x3c5e38efbe83f1ceU, 0x3d7a000dbe03f1ceU, 0x3c5e38ef3d98c724U,
  0x3d5e38ef3d98c724U, 0xbd7a000d3d4271d1U, 0x3dde38ef3d8ae395U, 0x3da6aab33c5e38efU,
  0xbe0ae395be505560U, 0xbdb48e42bd26aab3U, 0xbd0ae3953d98c724U, 0x3dde38efbd5e38efU,
  0xbd7a000d3e3b800aU, 0xbd7a000dbc5e38efU, 0xbdec1c7ebe26aab3U, 0xbda6aab3be26aab3U,
  0xbd5e38efbd4271d1U, 0xbd26aab3be4271d1U, 0xbd98c724bbde38efU, 0xbe18c724bdde38efU,
  0x3c5e38efbd98c724U, 0xbd4271d1bbde38efU, 0x3cde38efU, 0xbc5e38efbcde38efU,
  0xbd26aab33c5e38efU, 0xbcde38ef3db48e42U, 0x3c5e38efbd4271d1U, 0x3c5e38efbe574728U,
  0x3cde38ef3bde38efU, 0xbe348e42be652ab6U, 0xbd26aab3be03f1ceU, 0x3d26aab33d5e38efU,
  0x3da6aab300000000U, 0xbcde38ef3cde38efU, 0x3ca6aab3be348e42U, 0xbe5055603d0ae395U,
  0xbd0ae395bebb800aU, 0x3d4271d1be8078eaU, 0x3d8ae3953dd05560U, 0x3e03f1ce3dd05560U,
  0x3dde38efbdde38efU, 0xbe5747283d4271d1U, 0x3e348e42be4271d1U, 0x3e0ae395be26aab3U,
  0x3db48e42bcde38efU, 0x3dc271d13d8ae395U, 0x3d7a000dbd98c724U, 0xbe18c7243d5e38efU,
  0x3dec1c7ebd4271d1U, 0x3d5e38efbe8078eaU, 0x3dec1c7e3dfa000dU, 0x3dc271d13d98c724U,
  0x3e1fb8ecbe3b800aU, 0xbe348e423da6aab3U, 0x3dc271d1be0ae395U, 0x3d7a000d3d26aab3U,
  0x3cde38ef3dc271d1U, 0xbe3b800abd7a000dU, 0xbd7a000dbe5e38efU, 0xbda6aab3bd98c724U,
  0xbd98c724bca6aab3U, 0xbd98c7243cde38efU, 0x3ca6aab33da6aab3U, 0x3dde38efbda6aab3U,
  0xbd7a000dbe9c4008U, 0xbe4271d1bd98c724U, 0xbd0ae395be348e42U, 0x3cde38efbe91d55dU,
  0x3e0ae395bdde38efU, 0x3dde38ef3dfa000dU, 0x3e03f1cebe348e42U, 0xbd5e38ef3e348e42U,
  0x3e0ae395be18c724U, 0x3e11d55dbd98c724U, 0x3db48e423dde38efU, 0x3db48e423dd05560U,
  0x3dd05560bdde38efU, 0xbe18c7243d8ae395U, 0x3e1fb8ecbd4271d1U, 0x3e18c724bd5e38efU,
  0x3cde38ef3e876ab2U, 0x3cde38ef3d8ae395U, 0x3dde38ef3d4271d1U, 0xbd8ae3953d4271d1U,
